[PAD]
[UNK]
[START]
[END]
[MASK]
!
"
#
$
%
&
'
(
)
*
+
,
-
.
/
0
1
2
3
4
5
6
7
8
9
:
;
<
=
>
?
@
[
\
]
^
_
`
a
b
c
d
e
f
g
h
i
j
k
l
m
n
o
p
q
r
s
t
u
v
w
x
y
z
{
|
}
~
¡
£
¤
©
«
¬
®
°
·
»
¿
×
æ
÷
ø
ʖ
ᄉ
–
—
―
‘
’
“
”
†
•
⁄
€
←
↑
→
↓
↔
↞
↠
↩
↪
∆
√
∞
⌚
⌛
⏩
⏪
⏰
⏱
⏳
─
━
│
┃
┈
┊
┏
┓
┗
┛
┣
┫
┳
┻
═
║
╗
╚
╝
╬
╭
╮
╯
╰
╱
╲
▀
▄
█
▏
░
▒
▔
▕
▪
▫
▶
►
◀
○
●
☀
☁
☂
☃
☄
★
☆
☉
☎
☑
☔
☕
☘
☝
☠
☮
☹
☺
☻
♀
♂
♠
♡
♣
♥
♦
♩
♪
♫
♬
♻
♿
⚓
⚔
⚕
⚖
⚘
⚜
⚠
⚡
⚪
⚫
⚰
⚽
⚾
⛄
⛅
⛈
⛔
⛪
⛰
⛱
⛳
⛵
⛹
⛺
⛽
✂
✅
✈
✉
✊
✋
✌
✍
✏
✒
✓
✔
✖
✝
✨
✴
❁
❄
❇
❌
❎
❓
❔
❕
❗
❣
❤
➊
➋
➌
➍
➎
➏
➐
➑
➒
➕
➖
➡
➳
⠀
⤵
⬅
⬆
⬇
⬜
⭐
⭕
。
《
》
〽
つ
ツ
ノ
・
�
🃏
🅰
🅱
🆒
🆗
🆘
🆙
🆚
🇦
🇧
🇨
🇩
🇪
🇫
🇬
🇭
🇮
🇯
🇰
🇱
🇲
🇳
🇴
🇵
🇷
🇸
🇹
🇺
🇻
🇽
🇾
🇿
🌀
🌂
🌃
🌄
🌅
🌇
🌈
🌊
🌋
🌌
🌍
🌎
🌏
🌐
🌑
🌒
🌓
🌕
🌗
🌘
🌙
🌚
🌛
🌜
🌝
🌞
🌟
🌠
🌡
🌤
🌥
🌦
🌧
🌨
🌩
🌪
🌫
🌬
🌭
🌮
🌯
🌱
🌲
🌳
🌴
🌵
🌶
🌷
🌸
🌹
🌺
🌻
🌼
🌽
🌾
🌿
🍀
🍁
🍂
🍃
🍄
🍅
🍆
🍇
🍈
🍉
🍊
🍋
🍌
🍍
🍎
🍏
🍐
🍑
🍒
🍓
🍔
🍕
🍖
🍗
🍚
🍛
🍜
🍝
🍞
🍟
🍡
🍣
🍤
🍥
🍦
🍧
🍨
🍩
🍪
🍫
🍬
🍭
🍮
🍯
🍰
🍱
🍲
🍳
🍴
🍵
🍷
🍸
🍹
🍺
🍻
🍼
🍽
🍾
🍿
🎀
🎁
🎂
🎃
🎄
🎅
🎆
🎇
🎈
🎉
🎊
🎋
🎒
🎓
🎖
🎗
🎙
🎞
🎡
🎢
🎣
🎤
🎥
🎧
🎨
🎩
🎪
🎫
🎬
🎭
🎮
🎯
🎱
🎲
🎵
🎶
🎷
🎸
🎹
🎺
🎻
🎼
🎽
🎾
🏀
🏁
🏃
🏄
🏅
🏆
🏇
🏈
🏉
🏊
🏋
🏌
🏍
🏎
🏐
🏑
🏔
🏖
🏝
🏞
🏟
🏠
🏡
🏥
🏫
🏰
🏳
🏴
🏵
🏹
🏻
🏼
🏽
🏾
🏿
🐀
🐁
🐂
🐃
🐄
🐅
🐆
🐇
🐈
🐉
🐊
🐋
🐌
🐍
🐎
🐏
🐐
🐑
🐒
🐓
🐔
🐕
🐖
🐗
🐘
🐙
🐚
🐛
🐜
🐝
🐞
🐟
🐠
🐢
🐣
🐤
🐥
🐦
🐧
🐨
🐩
🐬
🐭
🐮
🐯
🐰
🐱
🐲
🐳
🐴
🐵
🐶
🐷
🐸
🐹
🐺
🐻
🐼
🐽
🐾
🐿
👀
👁
👂
👃
👄
👅
👆
👇
👈
👉
👊
👋
👌
👍
👎
👏
👐
👑
👒
👓
👔
👕
👖
👗
👙
👚
👛
👜
👞
👟
👠
👡
👢
👣
👤
👥
👦
👧
👨
👩
👪
👫
👬
👭
👮
👯
👰
👱
👳
👴
👵
👶
👷
👸
👹
👺
👻
👼
👽
👾
👿
💀
💁
💂
💃
💄
💅
💆
💇
💉
💊
💋
💌
💍
💎
💏
💐
💑
💒
💓
💔
💕
💖
💗
💘
💙
💚
💛
💜
💝
💞
💟
💠
💡
💢
💣
💤
💥
💦
💧
💨
💩
💪
💫
💬
💭
💮
💯
💰
💲
💳
💴
💵
💶
💸
💻
💼
💿
📀
📅
📆
📈
📊
📌
📍
📒
📓
📕
📖
📚
📝
📞
📡
📢
📣
📦
📩
📮
📰
📱
📲
📷
📸
📹
📺
📻
📼
📽
📿
🔁
🔃
🔄
🔆
🔈
🔉
🔊
🔋
🔌
🔎
🔐
🔑
🔒
🔔
🔘
🔙
🔚
🔛
🔜
🔝
🔞
🔟
🔥
🔧
🔨
🔪
🔫
🔬
🔮
🔰
🔱
🔴
🔵
🔶
🔷
🔸
🔹
🔺
🔻
🔼
🔽
🕊
🕑
🕒
🕓
🕔
🕕
🕖
🕗
🕘
🕙
🕚
🕛
🕯
🕵
🕶
🕷
🕸
🕺
🖐
🖑
🖒
🖓
🖕
🖖
🖤
🖥
🗓
🗡
🗣
🗳
🗺
🗻
🗼
🗽
🗿
😀
😁
😂
😃
😄
😅
😆
😇
😈
😉
😊
😋
😌
😍
😎
😏
😐
😑
😒
😓
😔
😕
😖
😗
😘
😙
😚
😛
😜
😝
😞
😟
😠
😡
😢
😣
😤
😥
😦
😧
😨
😩
😪
😫
😬
😭
😮
😯
😰
😱
😲
😳
😴
😵
😶
😷
😸
😹
😺
😻
😼
😽
😾
😿
🙀
🙁
🙂
🙃
🙄
🙅
🙆
🙇
🙈
🙉
🙊
🙋
🙌
🙍
🙎
🙏
🚀
🚁
🚂
🚃
🚌
🚍
🚎
🚐
🚑
🚒
🚓
🚔
🚕
🚖
🚗
🚘
🚙
🚚
🚛
🚜
🚢
🚣
🚦
🚧
🚨
🚩
🚪
🚫
🚬
🚮
🚲
🚴
🚵
🚶
🚹
🚺
🚽
🚿
🛀
🛌
🛍
🛏
🛑
🛡
🛣
🛩
🛫
🛬
🛵
🤐
🤑
🤒
🤓
🤔
🤕
🤖
🤗
🤘
🤙
🤚
🤛
🤜
🤝
🤞
🤟
🤠
🤡
🤢
🤣
🤤
🤥
🤦
🤧
🤨
🤩
🤪
🤫
🤬
🤭
🤮
🤯
🤰
🤲
🤳
🤴
🤵
🤷
🤸
🤾
🥀
🥁
🥂
🥃
🥅
🥇
🥈
🥉
🥊
🥐
🥑
🥖
🥗
🥘
🥚
🥞
🥩
🥰
🥳
🥴
🥵
🥶
🥺
🦀
🦁
🦂
🦃
🦄
🦅
🦆
🦇
🦈
🦉
🦊
🦋
🦌
🦍
🦎
🦖
🧀
🧐
🧔
🧘
🧙
🧚
🧜
🧟
🧠
🧡
usr
que
de
la
no
el
en
me
es
htag
se
lo
los
un
con
por
mi
para
te
si
las
una
mas
como
pero
del
##s
jaja
yo
ya
al
esta
le
tu
todo
cuando
su
hay
porque
eso
tengo
dia
hoy
ni
este
ser
son
quiero
bien
voy
asi
estoy
solo
nada
todos
nos
ver
muy
sin
siempre
mejor
ahora
hace
vida
va
tiene
##n
gracias
##a
tan
hacer
gente
soy
hasta
ese
algo
mis
quien
fue
mal
vez
nunca
esa
##o
mucho
ir
les
puede
manana
sus
ha
bueno
cosas
dias
tambien
estar
donde
esto
creo
alguien
anos
vos
desde
##r
puedo
amor
##e
sea
estan
da
menos
casa
tener
dos
uno
nadie
era
feliz
estas
vamos
dios
tiempo
re
cada
amo
tanto
despues
he
ganas
##te
igual
mismo
otra
verdad
##es
otro
mundo
mierda
dice
ano
ahi
eres
van
tienen
##do
ti
pasa
dormir
cuenta
decir
personas
toda
gusta
pais
pues
buen
##mos
poco
veces
noche
antes
aqui
ella
persona
todas
##da
hora
semana
favor
paso
quiere
##me
buena
tus
##0
parece
sera
estaba
falta
veo
pa
sos
##lo
lindo
madre
puta
estos
entre
##i
vas
estamos
siento
salir
sobre
momento
partido
han
mama
gran
espero
hola
nuevo
esos
aun
poder
ojala
##se
peor
ellos
muchas
dijo
necesito
amigo
final
trabajo
fin
hablar
hacen
aca
corazon
cara
amigos
sabe
saber
aunque
buenos
##la
tarde
cosa
unos
sabes
digo
##l
ayer
debe
contra
amiga
unico
##on
tenia
viene
odio
parte
dar
saludos
tienes
mil
tenemos
claro
dicen
somos
lado
seguir
casi
gobierno
esas
foto
hizo
seria
horas
grande
buenas
hecho
haciendo
habia
muchos
cabeza
dan
deja
fuera
##le
hago
xd
##ia
equipo
todavia
pasar
queda
algun
vi
pueblo
acuerdo
cual
sigue
comer
voto
tipo
mujer
##t
ustedes
iba
pueden
estado
tal
sigo
##d
dejar
mientras
luego
nuestro
haber
seguro
pena
vaya
quieren
ve
ah
twitter
##ndo
fotos
usted
super
extrano
volver
unas
visto
pasado
sueno
entiendo
familia
##y
sale
entonces
otros
conmigo
presidente
papa
sino
poner
historia
pensar
miedo
##ta
cualquier
lugar
mira
suerte
nosotros
llegar
ay
primera
##ba
abrazo
vale
tema
encanta
importa
sido
loco
tenes
vivir
dije
futbol
viendo
acabo
encima
sola
##is
medio
viernes
misma
mucha
hombre
razon
linda
escuchar
mio
problema
##ra
jugar
mala
boca
pone
mano
os
tomar
saben
caso
dejo
llego
demas
cambio
video
hijo
llorar
pase
##nos
quedo
##os
##m
paz
mejores
##an
novio
habla
sabado
##mente
venezuela
fui
queria
senor
calle
hermosa
cancion
agua
primer
cama
domingo
contigo
triste
##u
cuanto
dio
ojos
musica
nuestra
forma
minutos
hermano
manera
nombre
hacia
juego
anda
meses
tres
##to
haga
vieja
primero
dinero
frio
tampoco
##na
cierto
ganar
espana
xq
creer
mexico
verguenza
trabajar
haces
llega
alguna
quieres
serio
hablando
doy
mes
argentina
deberia
noches
fuerte
chile
##c
pobre
puedes
##as
jamas
cumpleanos
esperando
has
luz
llevo
malo
idea
hermoso
mujeres
madrid
rato
siendo
hijos
realidad
pedo
clase
plata
gusto
gol
haya
importante
san
dicho
onda
hice
tenga
ja
real
culpa
pienso
lunes
ademas
colombia
ultimo
podemos
x0
demasiado
unica
asco
dificil
punto
cumple
llegue
facil
nueva
duele
dolor
mia
grupo
ven
politica
comprar
respeto
eh
estudiar
##z
perdon
excelente
vivo
alla
rt
gana
mm
bonito
tanta
queremos
lpm
ahre
cuerpo
nacional
alma
##h
nivel
programa
recien
##no
pq
culo
diga
amigas
increible
palabras
pense
querer
fueron
hermana
risa
ves
dale
viejo
frente
ningun
juro
otras
vuelta
sol
justo
rico
hambre
besos
##p
llama
##ro
perder
temprano
ley
pensando
algunos
sean
camino
pregunta
celular
ex
esperar
leer
##ar
quede
##co
comida
nota
lluvia
##cion
##das
mando
cambiar
deje
justicia
empezar
pongo
ante
quiera
sabia
di
felicidades
sacar
vacaciones
existe
ok
pronto
media
sentir
feo
das
dentro
millones
padre
juntos
hablo
loca
voz
venir
pelicula
##ca
nomas
concha
ciudad
##zo
quienes
etc
podria
pelo
rapido
ayuda
puto
ninos
buscar
am
##los
##dos
derecho
morir
verga
nuestros
lejos
muero
bebe
novia
ajaja
arriba
diciendo
manos
calor
sii
segundo
gustaria
problemas
bajo
##ito
jeje
orto
normal
ejemplo
serie
libre
atras
vuelve
to
partidos
vs
toca
apoyo
pasando
perro
servicio
grandes
lleva
duda
verte
terminar
ultima
dando
salio
recuerdo
colegio
venga
cree
vino
habra
hicieron
noo
finde
tantas
obvio
momentos
ropa
felicidad
##k
hija
queres
##g
acaba
sentido
hubiera
fiesta
chicos
realmente
mayor
ninguna
##ita
humor
pagar
termino
the
anoche
ojo
viaje
hagan
juega
pedir
tuve
muerte
pueda
beso
##io
temporada
basta
darle
atencion
juan
segun
siguen
conozco
tio
podes
politicos
club
cielo
oficial
deben
cafe
hombres
joder
salud
cae
clases
gano
mundial
dejen
fuerza
par
merece
espera
ponen
imposible
ud
entender
jugadores
cerca
quisiera
fe
entrar
alto
quedar
puesto
mente
mensaje
dado
maduro
pasan
puse
llevar
na
estaria
corrupcion
publico
lastima
posible
futuro
necesita
deseo
regalo
negro
che
ta
jueves
eran
nino
raro
##er
centro
tengas
total
banda
##en
senora
joda
tv
escuchando
numero
social
videos
escuela
##les
mayoria
tw
respuesta
pido
segunda
hacerlo
vive
nose
siesta
hablan
chica
pregunto
mentira
##x
dejan
votar
ando
genial
oye
santa
palabra
quedan
siente
mirar
vemos
carajo
vuelvo
digan
junto
educacion
hemos
bastante
libro
##ga
opinion
puso
##za
aire
resto
copa
bonita
situacion
km
libertad
jugando
decia
sonrisa
sabemos
canciones
banco
dices
matar
viva
sr
conocer
chico
largo
tweet
tiro
salgo
abuela
suenos
##f
cualquiera
##de
termine
creen
##go
poquito
lista
gustan
tendencia
adelante
votos
andar
macri
horrible
messi
querido
##ble
guerra
martes
maria
empieza
verano
mx
##nte
jose
dieron
jugador
totalmente
##re
perfecto
piensa
izquierda
manda
don
salga
carlos
cuantos
##b
tierra
duro
usar
##ma
plan
capaz
tenido
##v
irme
quieras
saco
seas
elecciones
llorando
deberian
vienen
prefiero
bronca
cuentas
semanas
informacion
miercoles
politico
auto
sirve
luis
internet
tuyo
listo
usa
especial
lleno
##res
cuesta
via
algunas
salen
seleccion
nina
edad
min
encuentro
derecha
mina
redes
cuento
rio
error
basura
animo
haha
##las
tia
cago
campeon
mismos
##in
peru
oportunidad
tendria
trata
cancha
huevos
debo
estuvo
viento
##ste
seguridad
sociedad
dano
alta
cono
hacemos
buscando
tantos
huevo
pinche
paja
durante
saludo
viste
instagram
mitad
puro
encontrar
chicas
##sa
america
siga
suena
durmiendo
olvido
medios
relacion
sistema
##ce
paro
alli
escribir
neta
violencia
tengan
subir
bella
puntos
escucho
##so
puerta
entiende
noticia
termina
campana
radio
siquiera
felices
exito
hdp
navidad
saca
dijeron
mirando
##ista
felicitaciones
democracia
canal
sociales
ellas
diferencia
river
ido
fondo
carrera
leo
reir
pm
goles
pibe
verlo
liga
osea
muchisimo
imagino
caer
crees
perdi
pesar
pan
perdido
pareja
afuera
derechos
hable
pude
padres
hs
bola
dormi
barrio
luna
mar
alegria
levante
general
pendejo
##mo
policia
pelotudo
toma
playa
busca
tardes
pablo
azul
ingles
doble
fan
aprender
##ron
gato
duermo
varios
baja
minimo
tiempos
linea
den
llena
fecha
tras
dm
podia
nuestras
blanco
##era
hagas
bailar
capitulo
hacerme
olvidar
bano
temas
pp
uso
leche
gane
vea
telefono
estuve
##ado
aparece
levantar
espanol
##ria
cine
diferente
quizas
uds
muerto
malas
tuvo
orgullo
abajo
corruptos
ahh
sigan
terrible
cargo
pie
proximo
##ban
vuelva
##tes
meter
apenas
dime
faltan
estes
proxima
compre
personal
dudas
noticias
simplemente
rey
estaban
fuiste
papas
vamo
##que
patria
##ne
ama
entro
plaza
bendiciones
hiciste
nena
##tas
posta
llamar
dura
pide
##al
mami
##ero
vayan
pobres
mandar
sali
digas
man
cuarto
seguimos
comiendo
contrario
disfrutar
##ja
pura
precio
corte
publica
##idad
aguante
lucha
datos
color
pierde
lados
toque
pago
decis
piel
hablamos
gorda
vengo
facebook
##ada
abrazos
empezo
tomo
carino
amar
gordo
jesus
calidad
entrada
##dor
opcion
molesta
robo
significa
cuatro
recuerda
necesario
sangre
piso
pocos
oro
pinta
zona
ninguno
aparte
##ando
interesa
tremendo
comentarios
congreso
ultimos
llegan
tomando
levanto
estadio
contar
miles
modo
tuit
peliculas
chau
examen
idiota
decirle
proyecto
barcelona
necesitamos
cambia
simple
inicio
saque
ayudar
hubo
gratis
entra
experiencia
cero
santos
lopez
tinton
whatsapp
brasil
podrian
carcel
aa
definitivamente
interesante
qe
rojo
julio
sanchez
defensa
trabajando
concierto
gym
mate
for
bue
mande
mata
confianza
pudo
porq
paises
orden
presente
minuto
mensajes
silencio
dulce
##emos
mentiras
compro
crack
hablas
campo
propio
xdd
ambos
mato
salida
fav
mesa
oh
entero
papel
netflix
ke
solucion
°c
cabron
imagen
historias
come
tranquilo
cumplir
fuego
##ismo
miro
decision
tweets
conoce
mates
periodista
encontre
prensa
tristeza
trump
verde
frase
estara
pedro
monton
compartir
senores
cuantas
periodistas
ponerme
victoria
prueba
parar
norte
diciembre
propia
directo
debemos
equipos
negra
placer
querida
escuche
##ico
esten
joven
tirar
humano
esperanza
muertos
do
diria
tome
vista
paga
ciudadanos
cagar
cuidado
##ica
llamo
locura
##jo
martin
ideas
##w
as
necesidad
sur
perdio
palo
perfil
despertar
seran
olvide
show
presion
##istas
profe
##rio
seguidores
pesos
vio
##j
preguntas
toco
nuevos
caga
bajar
pelotuda
correr
causa
caes
universidad
comentario
empresa
incluso
pega
rica
epoca
cdmx
solamente
teniendo
corto
memoria
tl
ello
sexo
ultimamente
actitud
volvio
calles
defender
##nes
romper
ponga
desastre
costa
helado
cerebro
malos
haria
amoo
##ti
cola
dame
gracia
llevan
companeros
tele
espalda
levantarme
##q
##je
recuerdos
estudio
perros
chiste
echo
suficiente
ma
piensan
iglesias
escucha
camiseta
partir
marca
sube
penal
esperamos
tuits
favorita
curso
##ing
cerveza
literal
viejos
resultado
errores
crisis
##ri
bolas
pies
varias
mg
cantar
##cho
maldita
viajar
jefe
chocolate
metro
maldito
lei
flor
adios
esfuerzo
tranquila
peso
control
marcha
amistad
guste
mario
estare
europa
altura
tuya
caminar
jovenes
lloro
dictadura
destino
alcohol
debes
delincuentes
ahorita
responde
pibes
pones
quieran
existen
boludo
energia
##cia
##miento
verla
uy
jugo
desperte
premio
pizza
bello
resulta
perra
fea
cantidad
pensaba
hermanos
ganado
proceso
extrana
emocion
cantando
vecinos
wey
##cito
envidia
quedarme
comun
nuevas
primo
espacio
oposicion
funciona
valor
impuestos
quita
poca
acaso
prima
economia
##ni
hpa
resultados
pruebas
falto
cayo
diario
detras
corta
dignidad
sonar
fb
recordar
uribe
##rse
venezolanos
barca
santiago
pongan
adentro
paciencia
tocar
obra
iphone
##va
cruz
enorme
psoe
boluda
carro
llegado
bendiga
dejaron
perez
hubiese
peli
in
sentimientos
chabon
comi
viven
angel
##ina
cuestion
oc
clima
tarea
conseguir
sector
diego
abrir
supuesto
corrupto
despierto
pija
hara
miguel
quise
ecuador
pro
base
rivera
muere
lucas
reina
we
golpe
decirte
candidato
##us
##cha
tonto
fans
moral
regimen
vosotros
olor
baile
so
enserio
carne
mencion
compra
acabar
cc
uff
tira
arte
dr
red
interes
##ka
principio
gil
locos
piernas
compania
##pa
sepa
evitar
bogota
siguiente
entradas
of
aguanto
habria
tt
intento
depende
you
larga
central
maximo
poniendo
##ya
clasico
cultura
aveces
despierta
rosa
jorge
volvi
enamorada
darte
pego
baby
pocas
flores
estilo
parecer
constitucion
pagina
negocio
trae
caro
##ha
tendra
leon
completo
uruguay
dejado
respecto
sois
extranar
debate
yendo
ayy
diablo
verdadero
senal
amen
chavez
mercado
ministro
darme
##ch
correcto
juegos
lleve
enero
diferentes
sone
vengan
mirada
belleza
mayo
llaman
putas
aquel
dejas
invito
dejame
pendiente
robar
guapo
libros
murio
##che
veremos
unidos
humanos
veia
distancia
pal
##ss
entrevista
pases
favorito
cambios
cinco
andan
cerrar
##tico
pelota
nosotras
jjaja
estados
titulo
internacional
conoci
olvida
senti
dejes
elegir
sensacion
planes
cita
rompe
recibir
tenian
enferma
fiscal
lider
empresas
ridiculo
mental
pasaron
eras
dolares
coca
vender
##ras
pecho
merecen
pedazo
lamentable
busco
sufrir
juntas
cristina
trato
##ias
guapa
febrero
tecnico
personaje
enhorabuena
sueldo
hare
exitos
lengua
callate
preciosa
vueltas
moto
cabello
##tos
lindas
republica
##pe
responder
iglesia
pequeno
empiezo
deporte
tendre
pendeja
mereces
meta
alguno
##ros
disco
entendi
companero
hablame
mete
segundos
local
alcalde
vayas
lee
porfa
veras
farc
toy
trabaja
lol
valencia
perdida
sacan
santo
dt
anterior
fuimos
encantaria
peores
bb
medico
tratar
urgente
casos
necesitan
dormido
supongo
audio
perdiendo
piden
fa
parque
vine
camara
vaina
pusieron
version
estupida
bailando
vidas
actual
saliendo
ami
imbecil
genio
disfruta
pagan
bro
pelotas
infierno
chupa
conversacion
escribe
irse
daba
fuerzas
ana
snap
lugares
animales
pollo
pario
lindos
mejorar
argentino
cel
perfecta
hospital
pelea
descanso
encanto
salido
necesitas
quedado
acaban
horario
sorry
dijiste
like
facultad
##di
sigues
youtube
love
aviso
humo
brazos
queso
adoro
franco
hacerte
gloria
roja
exacto
invierno
cuba
series
ame
inteligente
ire
apoyar
seguramente
##el
discurso
estudiando
tremenda
tarjeta
abril
muestra
moda
##ie
falso
cambie
genero
cojones
pasen
##man
parecen
pe
pidiendo
hechos
llamado
antonio
puerto
top
sevilla
mismas
ocurre
##li
pierdo
sitio
segura
acorde
costumbre
bus
viviendo
accion
ladrones
sere
maestro
grave
regreso
bla
esperaba
interior
torneo
avion
leyes
oficina
profesional
cansada
abuelo
espanoles
sra
profesor
clave
##rme
capacidad
##bo
aprendi
hayan
panama
china
punta
lagrimas
estrella
podido
importantes
##ida
##eo
impresionante
canta
ajjaja
amlo
cuales
dedo
daria
octubre
motivo
nene
habian
pobreza
cuanta
explicar
igualmente
novela
vecino
primeros
vieron
tren
logro
llueve
ignorancia
nuevamente
pantalla
piola
hilo
naa
acciones
empece
gay
entrenar
vivimos
universo
temperatura
rabia
orgullosa
leyendo
bandera
movil
fiestas
twt
suelo
aquellos
##dita
vean
arbitro
colores
ganan
decisiones
trabajadores
iban
corriendo
av
fracaso
ataque
tratando
hacerle
aceptar
amas
cordoba
putos
tb
web
pasion
claramente
pasada
acto
muriendo
entienden
capital
privado
alegro
cocina
petro
tranqui
estrellas
madres
rodriguez
##ve
garcia
estupido
preguntar
salvo
mire
pasara
reyes
encuentra
yaa
my
esperemos
argentinos
caliente
##ido
amores
##ian
ig
pegar
acabe
leido
labios
sorpresa
des
idolo
espn
birra
grupos
traves
responsabilidad
tuviera
juez
consejo
menor
pieza
estando
venia
honor
delante
eeuu
madrugada
##cio
juegan
flaco
sabiendo
iguales
champions
entera
andas
mantener
veni
dieta
estudiantes
wpp
formas
critica
maravilloso
exactamente
costo
aprende
ala
bajon
finales
vende
jornada
papi
fisica
##ea
eu
rock
vuelven
comienza
pendejos
partes
planeta
obras
hablen
aguantar
go
##vo
traer
talento
enfermo
diputados
llegando
##ciones
duerme
valen
full
blanca
##dito
##tiva
cagada
ganando
supone
comunidad
audios
pilas
delito
pon
echar
fernandez
rosario
agustin
asesino
##mi
diez
marzo
obviamente
desayuno
caigo
recomiendo
turno
##llo
coger
periodismo
david
servicios
caja
estabas
##ke
puente
sentimiento
vuelto
conoces
podrias
titular
cabe
villa
popular
modelo
acordar
pico
escrito
ignorante
##ear
diaz
torta
gestion
po
##itas
intentar
hincha
conocido
superar
preso
teneis
nervios
imaginate
dormida
decirme
colectivo
##ir
broma
direccion
respuestas
ganamos
objetivo
aborto
independiente
caen
condiciones
clara
responsable
lento
piba
bravo
encantan
fria
visita
wow
posicion
victimas
marco
contestar
vestido
dile
tercera
recursos
puedan
##chi
pr
llamada
comunicacion
manuel
mc
app
md
hacerse
sorprende
##tivo
trabajos
laburo
estimado
max
##ki
mandan
quedate
presos
ira
revolucion
##or
conciencia
estabamos
cena
absolutamente
esquina
precios
lograr
sonreir
cerro
bs
legal
ruta
colombianos
lora
enamorado
bolsa
tetas
caminando
solos
er
materia
semestre
decian
##po
##lla
martinez
##endo
chino
vacio
politicas
tenias
##ge
fumar
pedi
pana
##tar
dueno
valores
siglo
ramos
venden
ee
pensado
pensamiento
firme
muchachos
crear
transporte
soledad
magia
preocupa
contesta
prometo
quiso
embargo
falla
seras
civil
eterno
animal
##zos
facu
seguido
criticar
vzla
quedarse
nicolas
dejando
podra
voluntad
nacion
celu
aburrido
salimos
manga
terror
olvidado
andres
etapa
queriendo
enamore
balon
insta
crush
gonzalez
triunfo
tacos
bye
parcial
preguntan
juicio
pudiera
quiza
pelotudos
descansar
artista
eleccion
luchar
agarro
ninas
familias
dudo
armas
##itos
moreno
coche
demuestra
pequena
razones
escribo
asado
casas
falsa
bar
##ton
##dores
peligro
area
olvides
nariz
vuelo
##tica
cn
##ck
nico
fijo
rajoy
wn
bondi
gas
asesinos
ventana
pasaba
vote
entrega
ilusion
quito
hinchas
hp
buscan
suyo
sal
contacto
agosto
cristiano
minas
is
fiel
carga
garganta
arg
conocen
deberias
tenerte
libertadores
kk
bloqueo
rata
tomas
porfavor
expresion
cancer
sinceramente
##ly
tonta
usan
wsp
segui
septiembre
canse
cuidar
humedad
cocinar
camila
intereses
cortar
crei
llegara
horror
libres
haz
empiezan
crecer
jueces
vere
cd
mica
verme
sientes
sala
uber
com
parecido
##cos
manija
##ts
venta
cansado
francia
pelear
permiso
daniel
##izar
robaron
pasas
mexicanos
vete
venezolano
oscar
ricos
##ll
verdadera
memes
rendir
inutil
calma
jode
ladron
reves
cole
##ino
and
gracioso
militar
piedra
evento
argumentos
alv
pinches
piensas
suarez
llore
millon
reunion
denuncia
nombres
cuello
je
esposa
matando
empezando
hecha
banca
sobra
ruido
an
fernet
sonando
aumento
hotel
duque
consulta
cobrar
junio
llame
quedamos
weon
ratito
familiares
mayores
matan
ejercicio
seres
pidio
quedaron
fc
lujo
mentir
importancia
pinera
ahr
completa
fila
existir
aeropuerto
acerca
on
##bles
inteligencia
metio
numeros
rompio
payaso
marido
puedas
besitos
mios
familiar
fernando
wea
##cas
abre
cl
humanidad
noviembre
sergio
##rte
##yo
fuese
roto
dedos
mexicano
gob
unidad
agarrar
carta
oportunidades
pasamos
muerta
francisco
gatos
sebastian
faltar
policias
arroz
alegra
panza
bomba
muchisimas
huele
##ho
flaca
distinto
regresar
lamentablemente
desarrollo
justin
actuar
dindon
entere
militares
habeis
pleno
bici
union
adivinen
casualidad
bateria
excusa
arreglar
contrato
beber
trafico
cambian
enojo
electoral
podre
pos
##nas
pregunte
quitar
harta
info
pedido
mames
comienzo
confiar
respetar
pareces
traje
damos
##jaja
natural
secreto
sencillo
tipos
complicado
##des
alarma
ultimas
dire
gimnasio
permite
alcanza
seamos
agradezco
subio
agarra
miren
publicos
droga
dialogo
vargas
consejos
estupidez
culpable
ambiente
accidente
presencia
gustar
desgracia
examenes
palos
rutina
ivan
extranaba
cambiado
cataluna
domingos
publicidad
contesto
cadena
mueve
pereza
##ntes
llevas
apoyando
poblacion
programas
explica
caiga
cura
decirlo
ponerse
verlos
colombiano
analisis
gastar
repetir
##izacion
dato
confio
##ko
efecto
play
movimiento
gasto
pokemon
deseos
toman
alberto
laura
articulo
probar
delincuente
riesgo
espectacular
wifi
felicito
estaremos
gira
princesa
hagamos
colo
ehh
hrs
##sta
detalles
drama
propuesta
tipico
##dio
companera
fueran
comunista
pesimo
gustas
terminan
zapatos
##be
harry
transito
dientes
llora
soporto
seis
castro
llover
col
##dera
medida
letra
##eros
completamente
hicimos
ansiedad
valla
veas
encuesta
cenar
abierta
caras
sexual
##rita
rts
canto
arrepiento
##ee
compromiso
limpiar
tienda
ritmo
##ty
##bas
##il
tmb
terroristas
llevamos
admiro
escuchado
sirven
candidatos
laboral
##ion
junta
salgan
ejercito
anti
ponerle
trajo
victima
##eta
gustado
empezamos
##qui
regalar
ratas
diste
intencion
representa
alemania
baje
espanola
quedas
meten
gobernador
aguanta
doctor
ten
gritar
vengas
saquen
hey
apoya
salieron
##fa
estres
estais
humana
meto
levanta
guardia
personajes
opinar
aires
celos
metas
sentia
fijate
gustaba
jiji
demostrar
salsa
hablemos
dioss
forro
faltaba
imagenes
proposito
actos
campeonato
salon
comprarme
necesitaba
rusia
espejo
gomez
estuviera
##ura
abogado
ctm
impunidad
urge
ft
medias
gool
fraude
fechas
volviendo
nacho
parada
mono
practica
crea
canso
sacaron
parecia
generacion
positivo
torres
apellido
##izado
virgen
repente
pague
##tado
corre
director
oido
unicos
viejas
golazo
wacho
intentando
mostrar
sienten
depresion
morena
cagando
proyectos
mafia
sienta
pc
aburro
espiritu
aburrida
quee
previa
arrancar
defiende
see
posibilidad
economica
hermosas
reconocer
recuperar
teatro
divina
atletico
conocerte
rival
correo
##he
it
estacion
bolivia
sucede
chilenos
arma
abierto
mentiroso
cierre
odia
lideres
milagro
roban
tirando
relaciones
cliente
acostada
amamos
tercer
conviene
dara
##gue
dolar
hubieran
follow
grito
economico
notas
grados
mega
salvar
brazo
bonitas
caos
james
deuda
llegaron
rara
dejaste
reirme
gilipollas
ajena
autoridades
fisico
gobiernos
uh
insoportable
rie
presentacion
letras
valiente
supero
barato
compras
junior
post
capitulos
wtf
maravilla
envio
hugo
llegamos
nerviosa
estrategia
ro
##ter
volar
esperan
provincia
feria
ciudadano
orgulloso
categoria
iria
decime
bienvenido
divertido
sacando
mass
jugada
campeones
explique
pegue
vota
investigacion
cobarde
##ncia
bebes
tiran
bobo
muera
genera
creia
entrenador
directamente
dona
medidas
##ios
manejar
botella
usando
negros
fuertes
bolivar
contento
suben
literalmente
subo
pata
metido
ale
universal
##aa
llegas
tire
cague
chingo
plato
ideal
reforma
hijueputa
enfermedad
seguis
laburar
rumbo
funcionarios
celebrar
competencia
ambas
mae
pared
importar
habitacion
vienes
##rra
##ry
llamas
sentirme
renuncia
##dora
felipe
votando
estudios
sofia
comparto
pierden
cali
querian
vox
opciones
andaba
original
idiotas
deportes
boludeces
valle
duelen
paraguay
co
sabor
tranquilidad
##dia
android
asunto
principal
consecuencias
a0
desayunar
##ela
limite
diputado
explico
deportivo
cagan
tendran
msj
cristo
batalla
drogas
gobernar
imaginar
respeta
enemigo
conocimiento
festival
##vi
##ces
dejamos
hables
tormenta
##ados
vera
dani
puertas
enviar
hayas
baila
kilos
##iza
barba
pasos
pri
one
##ng
llueva
pagando
carita
comunistas
remera
participar
eramos
google
maquina
miseria
caracas
contando
##eron
aparecio
escena
ps
convertirse
##ran
##rs
producto
karma
##dad
pato
camion
television
talon
empate
explicacion
jodas
gustos
javier
caido
cana
dormirme
fritas
borrar
sepas
queja
buenisimo
camisa
respirar
cuidate
cartel
abuso
produccion
alex
estomago
charla
visitar
ilegal
darse
##car
presidencia
hablaba
miras
afecta
humilde
cerrado
levantarse
cool
ole
comenzar
tigres
duela
hermosos
quejan
gigante
mananas
debio
mierdas
pensamientos
ibas
credito
criminal
fines
regalos
disney
lavar
mendoza
st
arena
corazones
racing
fallo
city
productos
macho
##dy
propios
vaso
escribi
puestos
limites
supera
medellin
subi
penas
ls
seguira
##der
pelos
tendremos
presupuesto
tve
cambiemos
reporte
gasolina
pre
##tra
tuvieron
sabias
cfk
independencia
naci
lorenzo
negocios
asamblea
perdona
##et
luces
capitan
refiero
maldad
enojada
robado
medicina
##ente
cr
tatuaje
angeles
siete
igualdad
##gar
logica
autoridad
ra
disculpas
firma
gritos
detalle
naturaleza
##ic
debajo
caida
merezco
semejante
fer
sufriendo
cuentan
cobran
superior
cesar
cora
humildad
trabajan
pinto
enseno
perrito
derrota
despertarme
suba
jodido
frases
teniamos
disfrutando
amanecer
creas
puebla
alejandro
amarilla
aplica
maravillosa
vuestra
volumen
pare
##ez
ganador
profesionales
traidor
tontos
aja
##tro
disculpa
clientes
arranco
cansa
##oo
empiece
haran
##son
muchacho
juventud
estaran
suma
almuerzo
sigueme
aquello
oso
mover
sano
busque
compa
uni
salva
oir
pierda
encuestas
opiniones
retiro
altos
reto
vidal
arquero
cable
malditos
ayude
hermanito
gata
rojas
##ur
aah
pequenos
vecina
votaron
manejo
judicial
ciertas
argumento
parezco
pierna
##tti
sabeis
supe
arranca
plena
porno
##gas
acepto
cai
aquella
morales
circo
alrededor
equivocado
borracho
micro
seguirme
coma
lali
gabriel
vivido
##hi
ciego
privada
lucia
cierra
liceo
existencia
omg
narco
dl
famoso
sonrisas
cabo
armar
agus
carmen
jugamos
agarre
amistades
esperas
##cita
materias
coraje
jo
fama
caballero
salia
pd
ocho
miserable
gritando
ricardo
penales
snapchat
matias
chivas
barra
quedara
vuelvan
bai
##icos
fox
##ue
limon
hostia
aman
deberiamos
festejar
sepan
faltas
##gan
amarte
mamita
pelis
puras
latina
sigas
dulces
recibe
vuelvas
traen
italia
hogar
lentes
valio
chucha
dejate
ec
falsos
verdes
venis
convirtieron
juegue
bendicion
dictador
porqueria
nace
lio
viajes
album
divino
merecido
boletos
tod
correa
isla
vuestro
personalidad
roma
mateo
motivos
##ny
mariano
mud
dirigentes
sabados
vimos
religion
sentidos
hinchada
celosa
teoria
cm
presenta
resumen
miente
taxi
vives
aficion
conversaciones
novios
brutal
menudo
medicos
precisamente
tirado
sacado
instituciones
situaciones
empresarios
propuestas
quedando
azucar
##sos
arbol
sexy
comen
tengamos
##xs
premios
terminado
seguire
tendras
gallina
publicas
chileno
sonido
penarol
fuente
solidaridad
victor
##ana
abrazar
region
patetico
##fe
comision
preocupes
bombon
mias
informe
menores
figura
raul
podran
permitir
discutir
pensas
silla
partida
hipocrita
tono
mori
altas
arco
pepe
jodan
empleo
fifa
tecnologia
olvidate
juntar
decidir
burro
raza
asqueroso
ganaron
##ten
sincero
marica
critican
lamento
rd
escenario
salvador
diosa
##rito
etica
lima
fede
fiebre
defendiendo
nacio
cargar
grado
amorr
ibamos
tomado
burla
pina
venido
coco
euros
profesora
actor
concepto
maxima
himno
naranja
subiendo
##dero
##tan
vais
please
imaginan
##ers
aprovechar
ausencia
reales
##ky
marcos
paseo
crean
sobrino
cortes
profesores
comenzo
boliche
##it
cuadra
espere
autos
##lin
belen
repito
ciencia
doler
titulos
debido
tuvimos
raja
saldra
vo
salto
marcelo
sentado
vivi
ingreso
invita
perdieron
mueren
eliminar
rubia
beneficio
##ns
chiquito
bolsillo
emergencia
escribiendo
mediocre
cobra
ideologia
codigo
entendido
quieroo
precioso
declaraciones
pagamos
pasta
socialismo
roberto
parado
andate
digno
querias
principios
piense
tratan
comercial
jugado
empleados
harto
senador
salta
up
soltar
monterrey
caracter
##tina
volvemos
ego
maneras
pongas
cumplo
ii
jefa
risas
division
odiar
pueblos
quedaba
paquete
peleando
pff
miss
crema
hablado
reggaeton
breve
diosito
traigo
matematica
catalan
llenar
patas
rodilla
fm
suya
bo
responsables
criticas
black
chiquita
ruben
techo
comido
boludos
##nse
transmision
organizacion
pista
alas
corresponde
##fo
##ua
peligroso
pecado
comio
jodiendo
construir
anteriores
parecio
ignorantes
spotify
cuida
inocente
catalanes
fandom
sana
csm
##tor
hacian
consigo
duenos
heroes
contenta
meme
meo
entran
labor
ponte
pantalon
##quito
##via
funcion
##mas
##ff
men
sufre
ayudo
administracion
socialista
miami
profundo
alan
saludar
##nia
clavo
##bi
amado
parejas
seguidos
vagos
tas
velocidad
ida
roba
inseguridad
rodrigo
tigre
podeis
decimos
castigo
aparecen
gustavo
bienvenida
contenido
invento
descansa
entregar
infancia
sad
decepcion
cruce
##nt
m0
maestra
yoo
perfectamente
##illo
##nda
quimica
##ete
sombra
emociones
actuacion
prohibido
patio
madrugar
quemar
monica
preparado
salario
recuerden
tenis
ministerio
mola
sensible
oiga
pesado
miran
empanadas
hernandez
##pi
piedras
generar
carnaval
sentirse
millonarios
echa
resolver
controlar
excusas
portero
genia
probablemente
oscuro
rollo
lloviendo
colonia
parce
vision
##rios
edificio
empezaron
ocurrio
criterio
##ed
rafael
pendientes
tomate
falte
madree
diran
votamos
estemos
holaa
mauricio
terminamos
limpio
volando
rubio
enoja
colmo
antojo
hpta
sales
locas
patada
equivoco
corrupta
capaces
alianza
sucio
hihilo
insulto
concurso
particular
bonitos
imaginas
quitan
lea
alvaro
detesto
bad
team
inflacion
##si
anuncio
tierno
chistes
inversion
promesas
guita
dare
jardin
canales
destruir
actividad
silva
rojos
complice
##lar
abuelos
bestia
metan
presidenta
propaganda
pacto
capo
##eando
dira
luchando
curioso
supuestamente
robando
terrorismo
malaga
llevaba
##th
cruel
comunismo
boda
estupideces
pila
copas
mochila
##ima
pijama
cami
perfume
primeras
pantalones
alumnos
primavera
chavista
imagine
decirles
mex
face
musical
traicion
acceso
instante
constante
crimen
trago
romero
bruno
ponemos
aseguro
partidazo
merecemos
pinas
puesta
practicamente
protesta
triple
plis
material
correcta
rafa
realizar
pedazos
denunciar
bicho
rios
##adas
socio
ohh
cat
banar
rueda
fatal
artistas
resaca
metros
estudie
conclusion
lees
chat
serian
invitar
quite
quilombo
pendejadas
##logia
marta
rocio
mantiene
manden
preparando
uu
riendo
historico
insomnio
digamos
comprado
sacarme
regla
c0
##nta
ternura
frances
sentada
##sas
peda
tendrian
matrimonio
falsas
reloj
dolio
dama
ar
decente
vdd
caballo
sufrimiento
llamadas
creyendo
pileta
sucia
##ice
favoritos
hablarle
castillo
municipio
conteste
nacer
acuerdan
by
cartas
new
ciudadania
delitos
agenda
delincuencia
discusion
fajardo
molesto
sigamos
llave
episodio
alimentos
minima
f0
tomen
ventaja
publicar
mini
cuarta
##tia
revisar
cante
##ticos
criminales
vernos
maquillaje
cuadras
##st
enemigos
callar
##nto
necesitando
kg
maluma
molestar
sed
cumplen
primos
apoyan
demostrado
paguen
herrera
tour
cursar
##nita
informa
enamoro
quererte
dejemos
trampa
participacion
camarada
colon
##torio
vago
chingada
lleguen
bomberos
dificiles
vicio
pasaje
renunciar
usuarios
convertia
fran
prision
rei
acompane
pastillas
sobran
##zar
limpia
rindo
tomamos
tocado
##nga
vergonzoso
vip
llenos
enrique
chido
##ber
pedimos
enamora
guardar
activo
condicion
escribio
piensen
esp
eterna
combate
democratico
##ci
todoo
quema
peronismo
volvere
oigan
ayudan
presentar
pedirle
institucion
temp
var
tenerlo
iniciativa
paris
regresa
deseando
haberme
cargador
paco
precipitacion
##tin
atender
agradecer
presa
reaccion
gris
continua
defienden
llegaste
pls
aplicacion
gonzalo
escuelas
tope
dj
llevado
##illa
cuadro
neymar
investigar
iran
considero
ms
filosofia
sacas
maestros
desaparecer
aprobar
tuyos
##den
veamos
##amos
carretera
puros
cap
extra
free
proteccion
amenaza
tiros
consumo
ministra
bloquear
terrorista
despedida
pesada
machista
espectaculo
encontrado
bloqueado
muuy
intente
wa
ordenes
serlo
horarios
votantes
embarazada
entrenamiento
##izada
mandaron
escuchan
comprando
once
comparacion
paraiso
equivoque
sinverguenza
encuentran
use
sesion
conflicto
intervencion
##ls
enganar
cierta
justamente
alerta
preparar
cayendo
paciente
##um
taan
nieve
moneda
master
oreja
sobretodo
obligacion
sopa
siguiendo
enfrente
sobrina
ue
hamburguesa
logico
##iendo
cantante
traidores
costado
oracion
diganme
##udo
##uda
sueldos
explotar
extranas
mision
grita
ponia
meti
bendito
polla
complices
idioma
aww
dure
hijas
zorra
lineas
##rt
lara
pres
##ds
especialmente
intenta
##ano
tocan
ensenar
##ver
mexicana
tuiter
vaca
autoestima
nadaa
ridicula
conocemos
andrea
promo
enterar
##tito
sorteo
record
provoca
coincido
conexion
ocasiones
llamando
auriculares
link
pibas
edicion
lenguaje
dandole
gorra
seguia
decide
calla
cumpla
ne
maneja
guerrero
paren
valga
aparecer
circulacion
distintos
senorita
tragedia
amable
##cer
disponible
niego
ed
alonso
construccion
nefasto
impresentable
esque
carreras
tios
gustando
cultural
arbitros
pudieron
eduardo
formacion
andalucia
montana
feriado
pica
paredes
darles
##osa
extrema
trate
##tis
abraham
negar
solucionar
##eras
peleas
##tu
convertido
huracan
guitarra
prioridad
mataron
volvera
##ner
colega
##lan
justificar
##ite
senado
llegada
pensamos
tonterias
convierte
evidente
rompen
informar
entienda
impotencia
perdimos
emoji
corona
valorar
borde
solas
all
incendio
traiga
llenas
perdonar
soluciones
giles
##dido
verdaderos
hubieras
notificaciones
constitucional
vivos
##mar
casado
lectura
deber
copia
alegre
invitacion
cansancio
primaria
uf
pique
factura
cobro
nueve
cumbia
ramon
mamen
pese
tatuajes
##smo
nalgas
toro
llevando
##tion
tristes
##zas
pierdas
polvo
##tio
##ira
habran
golpes
exterior
sonrie
narcos
esposo
amarillo
leccion
marchas
pito
mr
alcance
extranjeros
##azo
feminismo
chance
ocasion
extranjero
audiencia
sisi
ciudades
aprendido
complacer
lu
federal
estuvieron
nacido
rechazo
produce
##rro
mandando
inocentes
queridos
mo
departamento
guarda
suele
claudia
diseno
chavistas
caca
socios
votan
atacar
forra
estupidos
catolica
opino
ganara
susto
crecimiento
barrios
date
cruzar
quejo
operacion
chocolates
tranquilos
tecnica
requiere
tela
besito
insisto
chao
odian
avisa
enfermos
fake
ddhh
chinos
suegra
bienn
meterse
gh
exigir
podras
imbeciles
voten
zapatillas
enamorar
horno
catalunya
arranque
podamos
votado
fiscalia
susana
cagon
nervioso
quereis
asique
cambiando
duran
dolores
vendo
entiendes
chofer
borro
cueste
consigue
##bre
chorros
explicaciones
pelotudeces
tos
mandame
##lito
turismo
soportar
vina
pastor
aporte
acuerda
##ps
cabrones
injusto
quero
heroe
metiendo
eventos
veneno
quinta
vuelves
convertir
navarro
dejare
cagado
pegado
##ol
acepta
lobo
##mita
flojera
camaras
presta
trabajador
oferta
activa
agradece
texto
##ley
ramirez
instituto
juntamos
reconocimiento
barco
fueras
pop
vibra
regala
contexto
rostro
secundaria
campera
joaquin
abro
regale
cobardes
casar
desperto
pagado
podrida
limpieza
parciales
buscas
efectivo
jubilados
client
amplio
cerrada
##acion
llevaron
identidad
perdiste
cs
entrando
infantil
##bia
pesadilla
seco
empezado
##ula
rompiendo
invite
clubes
##rias
twit
delantero
##lita
horoscopo
atentos
dejarme
sv
##tt
reglas
pt
distintas
lleven
opina
debil
##disimo
##gua
tarada
fantasma
vidaa
porro
plazo
japon
conocia
conte
note
tamano
escandalo
crece
nah
##lon
pida
birras
sillon
guardo
nudes
invitan
sabian
tapar
llamen
favoritas
continuar
matematicas
probable
intenso
escriben
emocional
vela
volve
gallo
chingon
fiscales
bancos
flia
queden
julian
##nd
alvarez
hipocritas
definicion
carajos
creemos
velez
promedio
planta
potter
podriamos
almorzar
nubes
apuesto
got
sientas
##ine
importan
mezcla
paula
pasear
demasiada
misa
gimnasia
##rada
corriente
tercero
abrazarte
monte
##eria
disfruto
muro
acompanar
palacio
pensiones
decidi
##izo
personales
aniversario
##lado
uniforme
cuide
obsesion
entendio
disfrute
##quita
##uta
formar
actores
cumpliendo
##gado
seriamente
cambiaron
chaval
seca
mk
mimos
vinieron
pastel
##un
preguntando
lucho
ej
explota
aplicar
jj
condena
amante
tesis
##sion
merito
internacionales
bienestar
practicas
dejarlo
ca
extremo
absoluta
municipal
petroleo
vuela
bardo
venezolana
temporadas
heridas
suene
seremos
leas
tocando
non
absurdo
enano
estudiante
esperanzas
olvidan
biblia
piscina
trabaje
lean
locales
ricas
estudia
logra
anime
santi
acosta
miel
mandas
acabado
##rar
ensalada
granada
insultar
marcar
critico
maraton
imagina
##tear
kevin
diciendome
evidencia
##ena
##ler
boba
twittear
borre
olvidarte
masa
formula
recibo
comentar
tarda
emocionada
dejara
culpables
beneficios
fondos
##tto
seguiremos
mame
verdades
hueva
paginas
vendiendo
##ible
serios
homenaje
milagros
aburre
respondo
soltera
origen
presidencial
abogados
propias
online
tomarme
alba
guatemala
causas
infinito
##mento
dizque
dedico
agradable
##sito
recibido
nieto
finalmente
voces
preguntale
aprox
be
ronaldo
ducha
celeste
olviden
ciclo
ataques
inutiles
##ren
hermanas
dc
bellas
violacion
acostado
infeliz
maradona
profesion
boleto
encantado
tapa
##ccion
excepto
##mia
##ze
actividades
alcanzar
lata
temor
##chita
tarado
dalee
gesto
portugal
duerma
estaras
alexis
inventar
femenino
mora
tumba
##ditos
sub
hipocresia
##ger
escuchas
incomodo
varela
ronda
marico
poderes
##cada
simon
fascista
bolso
demanda
papeles
periodo
encuentras
listos
juzgar
insultos
chota
comes
pilar
servir
##rlo
dicha
engano
remedio
conferencia
fase
invitado
mosquitos
pretende
repite
retraso
decile
debia
jajame
regrese
automaticamente
venganza
gastos
pusiste
besar
presento
jugaba
##ud
acompana
pela
grax
dsp
cargos
supo
vendria
parezca
casita
fumo
##isimo
ciudadana
digital
##dura
comparar
##imo
abandono
##rd
estreno
mandado
##uu
fuentes
##var
quejas
irte
sabido
pregunten
utilizar
heladera
preparada
basicamente
aleman
pasaria
cristian
reflexion
uhh
charlas
posibilidades
gala
##cto
rm
propiedad
socialistas
evo
empatia
valentin
ht
bandas
demonio
pesima
##sh
mejora
acoste
feos
honesto
proximos
encuentre
ortega
espacios
massa
reino
logros
llenan
facha
reclamo
diganle
zonas
representante
desea
valora
adultos
ola
grabar
ensena
ahorrar
elegido
caminos
taller
##dez
declaracion
sabiduria
joya
impuesto
ppk
solita
sentimos
oidos
actriz
logrado
registro
enojar
##ales
admiracion
choto
perdono
productivo
##rto
objetivos
##fi
rincon
imperio
decidido
asesinato
suelta
siglos
encantas
queen
patadas
ruiz
tortas
conto
betis
delicioso
recuperacion
callo
vacia
maleta
tabla
darnos
bullying
pancho
tierna
sorete
arias
acuesto
complejo
##ivo
keiko
guillermo
actuales
ela
art
gutierrez
ss
brillante
fantasia
##cado
fuck
vales
iva
vd
volvieron
indio
onu
pizzas
sede
referencia
##jas
bolsas
famosa
progreso
star
##lle
combo
##jos
prender
wacha
carabineros
cano
billete
not
nestor
bajas
pidan
bn
rosas
centros
herida
comunicado
infarto
bariloche
plano
hiciera
vendra
##elo
##ii
cambien
can
capas
autor
cosita
time
ultra
similar
sufro
##sco
guaido
claras
cierran
muertes
organizar
hospitales
promesa
logre
maldonado
gripe
obama
hector
fucking
represion
bosta
morirme
pdte
gg
diferencias
pucha
devolver
pio
avanzar
##jito
alturas
favorr
olvidarme
ironia
pierdes
intelectual
kilo
carnet
pajero
##diendo
hacernos
hojas
marihuana
locoo
credibilidad
agradecido
pequenas
##tura
nostalgia
##tada
saberlo
cositas
medina
creciendo
especiales
andamos
necesidades
votacion
chevere
feminista
graciass
solito
##iva
carros
emociona
alcaldia
oscuridad
pau
especie
prefiere
cuente
us
inicia
##by
actua
traigan
conductor
fresco
deci
tirada
platos
quemo
colegas
entendes
vomitar
avance
##lio
aceite
calderon
zaragoza
omar
boleta
confia
zidane
##ante
nicaragua
##una
indirectas
careta
boton
campos
barata
aguas
maxi
harias
confirma
cacho
liverpool
pra
##ses
borracha
defensor
vehiculos
intensa
docentes
ricky
gobierna
patron
vias
util
pasame
almohada
inglaterra
voss
terminando
pasaste
bicicleta
cien
atleti
##dar
guay
canada
actitudes
electrica
sono
danos
##bilidad
define
disfruten
##toria
sentis
hermanita
fumando
tareas
tinelli
clinica
excepcion
pension
territorio
responden
acento
chilena
##tando
colegios
oficialmente
##disima
conjunto
ojete
juli
cne
dibujo
##citos
s0
podian
##nar
suave
veran
##dra
##monos
##gui
cr0
armando
metes
durmio
largas
aprovecha
##ad
##ona
buenisima
tequila
subido
apuesta
descubrir
desear
pacientes
sentencia
##ola
habido
playlist
##tita
denuncias
personalmente
recibio
aclarar
carolina
aburrimiento
impresion
ilusiones
comenta
importo
fortuna
sofi
confirmo
##gada
ciento
cris
polo
supiera
directa
##ndose
arreglo
aprendiendo
vereda
xxi
medicamentos
niveles
pasto
acuerdos
proteger
sabra
extrane
sinverguenzas
acordas
##tivos
restaurante
acostarme
murcia
ocurra
exista
angustia
curiosidad
agradecida
actualizacion
avenida
choque
cuartos
absoluto
daban
delicia
fundamental
envie
tortura
rayo
panico
respondio
##bamos
veracruz
##hh
declaro
ofrece
embole
justa
apunto
colombiana
vehiculo
rota
pj
tuviste
guadalajara
frontera
acabas
merida
portada
vivan
tipa
nacionales
parto
enojado
londres
set
seguidas
fija
refiere
meterme
salis
##ji
tuitear
chavismo
principe
agustina
confirmado
cagaron
postura
compran
##ey
plantel
entrego
r0
alejo
##bra
ptm
cervezas
chorro
dosis
colectivos
##zado
echan
encontro
leyenda
basico
ande
gringos
volvamos
esencia
fruta
vente
billetes
licencia
pedos
##cias
creeme
filtro
ortografia
respetan
acoso
paran
dimos
poronga
jamon
peronista
entorno
tanga
multa
camioneta
avisame
hablarme
merecia
avisar
penalti
experiencias
actualmente
conseguido
sacrificio
pelado
iniciar
metieron
populismo
significado
pintar
consciente
mera
venas
recuerde
intensidad
banarme
ot0
arboles
##stas
vigna
terreno
moria
firmas
##iro
nenes
culiao
positiva
olimpia
ponerte
truco
day
grasa
bruto
aventura
comprender
pertenece
neuronas
haceis
comodo
abuelita
g0
regalaron
ciertos
hombro
em
imaginacion
conciertos
miembros
d0
ponele
menuda
injusticia
ponete
##gia
destruccion
abri
asquerosa
increibles
##iz
esteban
resistencia
interno
manu
ascenso
promocion
ojitos
yy
efectivamente
roman
industria
escriba
what
off
sirvo
marcas
anillo
##ini
reserva
comercio
podrido
azules
milanesa
pareciera
sobrevivir
hno
rompo
daran
firmar
respetos
reconoce
sectores
##nn
deportiva
york
apagar
acostar
detenido
arana
comerme
fidel
presidentes
lana
gallardo
revista
callado
ladilla
weones
asusta
salame
huelga
volveria
milanesas
feas
john
ingrese
muestran
haberlo
margarita
mati
##tero
seguiran
seguime
solicitud
sincera
mantenimiento
compu
bosque
yankee
digna
spain
mii
daniela
patilla
envia
apaga
obtener
##mba
##icas
nono
durar
montero
##ks
##can
ganen
gaste
##izados
proximas
regalan
habias
##eran
soberbia
cerdo
asiento
##mientos
chavo
ayudas
miriam
mijo
temo
llamaba
viajo
mili
vayanse
entiendan
tkm
terapia
b0
despierte
animos
maltrato
ajeno
esoo
pienses
rodillas
sorpresas
implica
lateral
pasala
##tta
captura
sta
asumir
rap
mona
decreto
cansar
escapar
comento
sumar
acordaba
llene
referia
gafas
##eno
tierras
pagas
horribles
##gos
barbaro
vodka
peruanos
cientos
expresar
trailer
game
crimenes
sitios
cumplio
facturas
democratica
paloma
weas
##lia
ministros
enfrentar
buses
referendum
valido
usuario
are
micaela
honestidad
listas
rompa
preocupacion
escuchaba
viajando
ron
tarjetas
arjona
convencer
descargar
short
gila
cristal
penso
une
enseguida
saluda
mienten
capitalismo
manzana
posibles
serias
cartera
dejalo
coherencia
tribunal
asistencia
perdemos
##tivas
xx
brillar
michahal
bachelet
eva
chupar
hacerla
##idos
pesa
mercedes
liberal
hum
celoso
pegan
##ies
##tido
##ris
criticando
debilidad
secretario
mauro
doc
aparezca
prefieren
latinoamerica
descuento
maricon
##oso
sentimental
ansias
out
ovarios
javi
##ok
##bro
##iar
constituyente
caracteres
guia
##min
descanses
mail
amaba
oea0
justifica
creacion
cuna
toros
potencia
caballeros
##ut
vamoss
pasarla
mentirosa
inevitable
##chos
apertura
rancho
necesaria
distinta
vivienda
pera
delgado
aunq
miserables
perdidas
hoja
talleres
sa
beisbol
gordito
pidas
presi
mariana
soltero
##jes
literatura
lesion
jr
invitados
comandante
wp
likes
##bar
decada
alegrias
israel
exceso
karen
##per
##leta
incluido
haremos
inteligentes
mall
tratamiento
cabida
audifonos
medicinas
haberte
vicente
per
tecnicos
sarcasmo
##zon
bases
blancos
cejas
vato
elige
vega
reclamar
senales
regular
valentina
valer
directiva
usado
##ves
consecuencia
vazquez
vainas
arde
isabel
defectos
contestan
dispuesto
perritos
##ul
taco
dais
universidades
propongo
lenta
banderas
medalla
ejecutivo
caradura
empiecen
bellos
cagadas
culero
impacto
recuerdan
bote
padrino
##eto
radical
##rando
combinacion
mija
urnas
preocupado
perfeccion
cigarro
terminal
pegando
mires
rompan
publicacion
fortaleza
sushi
bajando
chinga
complacen
fanaticos
academia
estarian
vivis
bienvenidos
castellano
tribuna
mango
sumo
efectos
quedaria
conozca
poesia
apetece
##bio
vamonos
troll
motivacion
mana
lanus
amando
##aron
cruzo
avanza
gota
toxica
boy
egoista
maal
sujeto
campanas
idolos
##nada
icon
obliga
##tre
descubri
abren
barbara
oriente
##tacion
vivia
documento
seguros
habiendo
firmo
abra
coherente
reciben
##ngo
recordando
tonteria
##ches
##id
marina
magico
muchoo
bale
remix
temblor
cajas
canon
negras
lacra
cojo
sufren
largos
felicitar
perdoname
amargo
llanto
##len
hashtag
brillo
circulo
amoor
##dan
generaciones
terminas
##simo
##rnos
escudo
xfa
termica
mb
manejando
too
sintiendo
##logo
brian
sacamos
acompano
dejarte
llegaba
happy
genios
recoger
sacarle
cruda
verle
ben
enterado
psicologo
hot
decadas
cerra
cuernos
lloran
##ndome
intenciones
llaves
documental
sres
tqm
mediocres
diaa
##con
visitas
guzman
estafa
disfrutes
ortiz
pares
secretaria
abascal
dragon
verdaderamente
suelto
tn
contactos
recital
valientes
jejen
elite
sonado
##ario
opositores
cinismo
reconozco
boletas
sintonia
bajan
good
##arme
pretenden
mepa
urgencia
deliciosa
dd
sabio
juntada
expectativas
oficio
cunado
senoras
ratos
atiende
vidrio
aprendo
after
legado
enamorarme
uruguayo
cuentos
##rado
sucedio
bono
vayamos
mamada
llevame
goma
cumplido
##gio
agarran
##rr
llevara
analizar
echando
abrio
ocurrido
postre
party
atentado
preguntarle
copado
bombas
convirtio
fallar
bendita
probado
##sen
contratos
enzo
escucharlo
##rta
##rda
salas
desp
aquellas
cinico
armo
avise
botas
millonario
py
aprecio
caribe
rol
riber
responda
sancion
ganaste
vamoos
lady
king
muchisima
mueran
vergas
confirmar
queme
vendido
relato
mediante
terminaron
cometer
##lista
alternativa
aprendan
senadores
siguio
funcionar
racha
llores
funciones
mostrando
##ld
unicas
##lina
barranquilla
ojeras
cagas
dra
tolerancia
arregla
mty
bienes
alcanzo
quedes
cuerpos
narcotrafico
negativo
volverte
honduras
ciega
vuestros
agresion
logo
pierdan
uyy
acabaron
natalia
cortan
exijo
atento
queretaro
machismo
lindoo
marcador
quitaron
miedos
decias
biologia
quisieron
plus
signo
normales
preguntaron
belgrano
histerica
tiras
maldicion
buee
detener
invitamos
nublado
##chito
mentalidad
asesina
##ara
##ial
publicaciones
amigaa
##cido
##rico
acompanado
modos
busqueda
niega
orejas
presto
vacas
bala
demonios
mandato
life
activos
bio
emocionante
pensarlo
payasos
cintura
utc
novelas
estuvimos
desmadre
izquierdo
promete
borra
##nito
higado
abiertos
##ulo
eternidad
##nado
funcionario
quemado
reirse
##lu
##zi
competir
ocultar
bolsillos
##able
diana
importe
estuviste
dudar
hr
ostia
olla
alergia
masajes
motor
desagradable
aplausos
preciso
supieras
##dida
miento
miraba
chama
global
cartagena
##icion
tii
jimenez
autopista
talla
tucuman
fascistas
##fico
cantan
##ye
ganadora
ahorro
##ato
pegarle
gabinete
nahuel
vibras
xa
##iente
prende
quinto
##ular
rencor
testigo
patrimonio
reflejo
##llas
censura
##edo
treinta
guarde
ingresos
nobel
comerciales
desesperacion
manifestacion
perdone
tocara
live
ubicacion
unido
##ate
cnco
leen
shh
cadenas
antoja
raras
acostumbrado
mamas
rien
jurado
##ui
ficha
curro
indica
temazo
programacion
sebas
juarez
pene
acuerdas
permanente
vendran
pozo
##mon
resulto
mediodia
aver
plaga
violento
debatir
##xo
busquen
sierra
##cta
##jita
columna
receta
entrado
camina
invertir
duena
consuelo
rompi
balcon
encontramos
tony
mortal
escobar
mesas
feministas
candela
celulares
imponer
aumentar
docente
energias
viejito
teta
galletas
##men
pides
pondre
aceptan
##cen
irresponsable
usas
claros
sofa
saltar
rescate
movistar
descenso
##dme
admitir
gaby
fenomeno
pondria
amenazas
casco
cia
riqueza
cuero
pescado
chingar
joden
embarazo
mac
experto
##pan
demuestran
sinceridad
eche
mierdaa
esperado
odie
mu
representan
ele
diputada
diciendole
quejarse
quiten
ignorar
representantes
##nero
electronica
##chas
lecciones
avatar
piedad
protestar
help
violadores
maten
aficionados
##gi
terminen
incluye
snaps
##tee
cercano
alfredo
duelo
##nde
privilegio
peo
traten
historica
funcionan
##grafia
adulto
nacimiento
comportamiento
asistir
suficientes
mero
##idas
cubanos
pumas
fanatismo
big
biblioteca
guapos
taza
chimba
corregir
miranda
diera
violentos
carpeta
##ones
mocos
cristobal
plataforma
habitantes
chisme
levantado
cobertura
dominicana
grey
noto
armado
tomarse
privados
importas
##tal
ataca
danilo
compadre
festejo
ocupado
##ru
opinas
copada
escucharte
sc
descanse
mintiendo
jefes
girl
tendriamos
##ques
anuncios
oficiales
salidas
albert
computadora
findes
permiten
p0
yahoo
bieen
culia
cabezas
novedad
dijera
aportar
izquierdas
guadalupe
hazlo
ups
tendrias
florencia
contarle
misterio
famosos
mostro
cobre
jugara
excelentes
tsj
normas
kirchnerismo
usen
gaga
marquez
##cida
jodio
opinan
suban
exige
creado
mentirosos
bruja
viera
##uro
monumental
mazo
cobrando
llevarme
expertos
quedarte
ayudame
donald
encontrarte
seriedad
andes
dedica
politicamente
mentes
interesantes
propone
plastico
goleador
ave
apple
arsenal
transparencia
perdidos
satisfaccion
grite
tevez
hamburguesas
nadal
hernan
mari
jeta
ordenar
mentales
terminos
sabras
provecho
mapa
teclado
halloween
afecto
nazi
concentracion
protestas
##ot
escapa
esperes
forros
decidio
doce
carlitos
##don
extranando
domicilio
viaja
pagaran
aliento
fua
fallas
clap
ignacio
rapida
##mm
dejaba
perrita
maas
hd
esq
nietos
##rina
hacienda
escaleras
equivocada
imaginense
rayos
sufrido
tratado
companeras
cebolla
terremoto
entras
sirvio
encargo
odebrecht
cargando
ocupa
comprendo
noel
lealtad
platica
##par
flow
epocas
aumenta
toledo
estimada
venimos
pillo
suicidio
peron
cueva
cepeda
fijado
this
traes
fastidio
ignora
julia
hacete
ayuden
necesitar
muchacha
manejan
news
nenas
circunstancias
normalmente
camiones
ey
parlamento
intendente
moyano
asta
cabrona
muneca
morra
aclaro
##ciendo
quedaste
chapo
cancun
paul
##imos
estresa
##gon
mermelada
marchar
ayudando
vasco
marcado
colas
florida
nba
##ao
##gando
jueguen
n0
torre
meterle
chistoso
procesos
##van
##ditas
buenoo
regional
inepto
caba
preocupante
falle
cv
official
fino
kilometros
fabrica
rumba
explicame
miradas
vice
dentista
cuerda
recompensa
metida
repita
periodico
federico
compara
sintio
gif
gral
palmas
congresistas
recibi
protagonista
tito
cdo
##zan
selena
fuga
despacito
deudas
sampaoli
regalado
enoje
salu0
facundo
sirva
liderazgo
noble
vicky
##ms
quejar
arturo
ensayo
pte
partio
panda
malisimo
##sto
esperen
dioos
baia
echado
cule
ad
mugre
beba
eje
acabando
##isima
permita
rayados
t0
hueco
celebrando
coge
fascismo
cocino
cande
brilla
##tz
wee
pelean
llamaron
##encia
buscarte
quisiste
choca
house
ever
joe
trio
##ece
jodida
fome
negociar
look
fingir
abogada
##ven
vial
diarios
motos
saliste
museo
demostro
nube
plazas
inter
joel
comidas
conocidos
choco
movimientos
amaneci
##ure
gobernantes
lentamente
ventilador
acondicionado
sonora
futbolista
colgada
lavado
fideos
mila
cordiales
##vio
oral
comparte
##mio
##iado
antigua
dedicado
barbaridad
tension
balas
##mes
trauma
poderoso
##cs
suenan
tramite
esconde
##lada
cumplan
cuarenta
arito
favs
barro
×0
contentos
barsa
spoiler
seccion
incapaz
peronistas
pidieron
electrico
prepa
that
respeten
your
tipica
##ide
encerrada
acordate
fanatico
pobrecito
movilidad
piloto
sentirte
xv
ganarle
league
colorado
mania
basa
ree
amig
salve
palma
leones
hitler
hueso
depto
referente
carinos
contratar
mencionar
juve
apoyamos
##nza
echarle
asii
prepara
peruano
batman
agregar
ny
gasta
corea
abusos
ruso
medica
cuota
acostumbre
titulares
mamadas
quitado
gonza
escuchen
cojer
madurar
admito
respete
defensores
volveremos
##teo
considera
frutas
gays
arbitraje
ofrecer
geniales
bancar
adara
capa
tias
agrada
mamon
enfermedades
fuegos
italiano
dni
permitido
preguntado
suyos
pisar
deberes
sombras
amiguitos
##her
asesinatos
relax
trabajamos
sobrinos
montevideo
pagos
pasaran
invitaron
amiguita
clarin
heridos
nudo
psicologia
higuain
bts
unicamente
cuenten
harian
##ota
bunny
brc
veinte
vencer
fotografia
difundir
##rica
olvidas
clasicos
ogt
montar
independentistas
sexta
privilegios
debi
recuerdas
candidata
aviones
visitante
lluvias
apago
camilo
##ieron
escoger
tradicion
puneta
dioses
coso
tp
zurdos
aporta
caia
ariana
ofende
ejercicios
tirarme
mamar
german
ps0
terribles
definir
demora
salarios
piercing
subnormal
##ean
sandra
anto
gatito
oo
entendemos
posiblemente
psg
espaldas
subieron
ai
herencia
cadiz
##lero
simples
##ay
evidentemente
carton
demasiadas
botellas
tesoro
racista
perderte
norma
##deo
salinas
polemica
recorde
presiento
bebo
martina
buzo
perras
##gh
marketing
clasificacion
mide
empresario
tiendas
##neo
cifras
##ritas
contado
pendejada
asociacion
fisicamente
cona
##am
elena
coincidencia
habre
disfraz
envidio
orgullosos
mandamos
retirar
concepcion
conejo
##dre
bon
billetera
maso
raiz
adrian
convocatoria
cajon
dejenme
superado
brisa
costar
dirigir
vivas
jugaron
gv
refuerzos
existia
chamo
condenado
roca
antiguo
twitt
gritan
interna
controla
##eca
bloquea
romantico
##cal
celebra
##land
manual
calmate
valentia
abandonar
##ldo
robos
abiertas
suceder
ventas
julieta
foro
precaucion
teres
lacras
alicia
peluqueria
bailo
ensene
pastilla
##mado
profunda
edo
elegi
##selo
rinde
discriminacion
fantastico
monstruo
mascotas
sexto
##pado
bcn
muneco
enamorarse
comemos
##one
diosdado
doctora
asegurar
duermen
romantica
influencia
chehe
apuntes
bieber
hechas
necesite
##eza
salvaje
escapo
desorden
power
fierro
vero
plantilla
##arse
electricidad
gentuza
estariamos
ho
verlas
dude
camisetas
porcentaje
mafiosos
##rin
carril
naturales
coches
funciono
inviten
ganaba
abel
testigos
##bu
consegui
emojis
equivoca
##lli
latino
locuras
cheto
tomasroncero
preferido
rompieron
vehicular
cargado
chulo
best
economicos
perfectos
emocionado
exposicion
ingeniero
manipulacion
taxistas
hijueputas
##ys
ofender
casual
escribes
osorio
gordita
declarar
sapo
alfonso
##aria
cu
seguimiento
triunfar
exploto
war
graves
viniendo
combatir
jehova
same
##ien
inmediato
ridiculos
intentarlo
monto
saga
vendio
disculpe
haras
golpistas
dejaran
devuelvan
utiliza
disculpen
semaforo
##ual
calculo
park
extranamos
gremio
claudio
##lera
chupe
caricias
at
axel
recorrido
demostrando
home
conformo
estudiado
migo
tragar
recontra
ruedas
poeta
lago
vestidos
conforme
lanza
calienta
sientan
prox
trompadas
arrepentir
amiguito
enana
flojo
pum
soto
lola
molestan
pajera
##ess
fundacion
microfono
cierren
estabilidad
##izando
metodo
comienzan
ponerlo
intriga
felix
mejorr
lloraba
harina
ineptos
euro
pavo
comia
kiero
hazme
suelen
whats
actualidad
toquen
ansiosa
reuniones
buscaba
remate
taxista
eco
tenerla
premier
chorra
duarte
organizado
rotos
guardado
inspiracion
desprecio
otono
basica
santander
verse
prioridades
disimular
bayern
respiro
cagaste
fuma
trabajado
civiles
##jar
farsa
pue
##tv
besarte
ea
##oss
eeh
aprenda
dormia
aprovecho
titere
hetero
aahh
semaforos
##izan
benzema
escolar
cf
##metro
miembro
eligio
lxs
corren
cierro
arrancamos
dana
autobus
trabajas
##nal
tuyas
stgo
simpson
##pes
jesucristo
recomendacion
belgica
fracasado
contestas
but
prisa
weno
rossi
aguirre
tortilla
bebida
defiendo
sara
complicada
eta
avila
secretos
##val
indirecta
##rn
expulsion
inmenso
podremos
resentido
rivales
shock
corrientes
aay
renta
nazis
disposicion
##iano
inmigrantes
##han
dominguez
impide
andando
equilibrio
##ifica
oriana
sentarme
ende
principales
mejore
juvenil
mago
haciendose
pedia
reportaje
galicia
generales
sencilla
##vida
cambiaria
##tados
empleado
acordarme
psuv
sosa
cursi
rr
cunada
disque
stalkear
chef
duros
leerlo
almas
jara
colaboracion
cuido
traido
##ees
inocencia
##aba
pi
daddy
pagaron
aguilar
or
normalidad
bloque
lula
tomaron
ocupada
defecto
plantas
smith
patricia
juntarnos
americano
caros
kiko
sinonimo
desaparece
ejemplos
dedicar
copiar
##ella
banos
modelos
pasaporte
music
hablarte
toxico
convencido
dudes
aprobado
enteras
prendo
indigenas
single
trajeron
##gh0
odias
whisky
abrace
paulo
levantas
##rry
cortado
intentado
acabara
renuncio
haceme
gordos
##berg
desafio
escucharla
estatal
probe
hala
molina
conducir
sonrio
cb
pronta
cuidando
call
roben
huesos
ganadores
patriota
ac
##vera
bah
pintura
preparo
celebracion
tatuar
virus
renuncie
angelito
##vas
generan
felizz
miraflores
boquita
coleccion
amantes
gerente
borrachos
definitiva
##tiendo
inolvidable
##du
ranking
frutos
cansan
entrevistas
peero
sonriendo
garantia
mediocridad
refieres
pts
lava
violador
patetica
persecucion
playera
##xa
adiccion
escenas
codigos
mascota
follar
sacaste
noquis
##chu
ensenaron
incomoda
incluyendo
mosca
break
pudimos
sabiamos
giro
gdl
ot
calvo
hubiesen
jajas
evita
descaro
grandeza
conductores
olvidemos
aspectos
atacan
agencia
laa
preparados
guido
ara
devuelta
afan
##tera
jodidos
disparo
respaldo
ruego
mientas
constantemente
##rle
etiqueta
soldados
documentos
perreo
pudiste
dormirr
compas
elias
conociendo
transicion
dilema
##mbo
comoda
universitario
##r0
vuelos
goals
matado
##my
margen
nunez
comprension
novias
pavadas
responsabilidades
obligado
encontrarme
mandarme
pendejas
volves
entendiste
virtual
pegada
vallejo
mudo
avisan
demasiados
cresta
bea
peter
mabel
##ticas
respondi
cubano
decido
dinamica
gringo
incondicional
juntan
##tela
divertida
dejaria
##tismo
##dieron
deseamos
##ndi
jugue
bendecido
asuntos
cuchillo
honestos
ficcion
preste
noticiero
pipi
articulos
litros
despido
termo
seba
enviado
chamba
deseas
adorable
ciegos
cortarme
papelon
panorama
putaa
eternamente
flash
ligas
forever
rendimiento
confundir
teresa
antro
##nan
carla
reflexionar
late
hihirro
tom
bajos
hna
more
##ego
quemando
desierto
##zu
soberania
tiraron
oeste
h0
benitez
funcione
colocar
juana
suda
##gacion
cagarme
##gs
gaston
desgraciado
enormes
stop
entendia
volante
preocupada
sucedido
chancho
apoye
blancas
eliminado
graduacion
ocupo
ch
violenta
necesites
prometio
##sita
tuu
sucursal
comedia
acepte
femenina
##tista
informo
desnuda
evolucion
volviste
om
vader
##tte
facilmente
frias
encerrado
regalen
cambies
bajado
unidades
##ster
recupere
##net
pity
presentes
aprendio
transformacion
fantasmas
##ese
confieso
robles
ingresar
story
guion
miramos
##ento
sabanas
peligrosa
pasarme
seguidor
j0
suicida
##ador
cba
cayeron
cagarla
esconder
sip
visa
pack
cambias
discos
escuchamos
tic
cursos
prestar
haciendome
sexuales
salude
inmensa
busques
hablara
matarme
cementerio
levantan
encuentres
porto
bruta
cerrando
populista
##em
perderme
coman
guille
resentimiento
volvimos
arrechera
beto
amigoo
llamame
galeria
muela
silvia
shit
representacion
detiene
gallinas
terminara
##dado
extranan
emilio
lagrima
leve
vencido
pasajeros
##ote
juzgado
spam
convivencia
positivos
##eado
pinte
policial
ensenan
nop
raros
buscamos
nojoda
vestir
amorosa
##fica
manifestaciones
narices
elementos
raya
enamorados
estadisticas
poh
paola
sanidad
amada
comunidades
odiando
sabroso
rafagas
mosquito
nombrar
catalana
culpar
bane
garra
tarifas
calendario
##sima
editar
gonorrea
bebiendo
madurez
ofrecen
oe
##vista
cedula
bilbao
tiren
##ker
plebiscito
##vos
claridad
conversar
vomito
preparacion
venda
guiso
derechas
vara
perdedor
misericordia
munoz
baez
youtuber
volveran
colgado
tere
cortas
notar
favores
empanada
preocuparse
gb
vuestras
##eis
lp
abraza
proteja
motiva
ideales
angulo
##amiento
cancelar
preocupo
amistoso
indignacion
candidatura
muchisimos
uc
compraron
tuiteros
diva
contaminacion
encontraron
df
ganancias
ayudarme
##inas
chi
cuadrado
dirigente
jep
estupidas
destruye
echaron
##chis
extranoo
caretas
send
tardo
semifinales
##culo
adolescentes
escoria
cambiara
preocupe
v0
lic
producir
isco
##rdo
centrales
united
jordi
adicto
lanata
temporal
culito
cerrados
seguirnos
preocupan
moleste
dedique
pizarro
egresados
potencial
tinder
##rista
##lismo
ali
mp
tremendas
platicar
filas
murieron
atr
olvidaste
tentada
ing
indiferencia
luciano
cortos
porfi
##teros
pronostico
tc
indignada
fujimori
porra
madrina
##nis
robe
funcionando
abandona
chula
cronica
##om
madera
mandarle
individuo
gim
##at
mood
dulzura
clava
roger
volverme
aplauso
recibiendo
basket
placa
farmacia
rating
tanque
chris
contrasena
sporting
duras
sindrome
##gra
saludable
sentar
vestida
laborales
ilegales
trenes
estaciones
pasajes
largue
blog
fieles
milan
##rri
retorno
llegues
hablaron
aspecto
placeres
leal
metal
suiza
tragos
ayuntamiento
panas
bautista
cata
frustracion
traeme
uribista
just
##llos
fallecio
damas
unfollow
putear
paraguas
democratas
taxis
mejorando
obrador
molestia
emelec
emociono
igualito
inexplicable
zz
reventar
conocida
##tir
renovar
conocimientos
ocupar
pinochet
sensibilidad
california
edu
lena
oea
rusa
user
diablos
##zca
frios
activar
croacia
anuncia
perspectiva
entramos
sombrero
cocinando
sacarse
nomina
lesionado
vegas
caigan
marvel
complicidad
cubrir
oviedo
guapisima
pasalo
manchester
aprendes
things
mirarte
desconocido
vientos
soldado
data
india
presumir
sanciones
ejercer
guayaquil
apague
insistir
##itan
danar
marin
vamoo
favoor
podias
supermercado
militantes
fina
##bs
semifinal
reaccionar
transmite
litro
culos
##ificado
debut
europeo
escape
pride
habiamos
quiebra
profundamente
##inos
respira
embajador
sp
wars
zulia
suplente
kirchner
compramos
democrata
adicta
basuras
majo
hacias
##enta
afa
privadas
anden
primas
falcon
idola
resta
salvacion
compartiendo
manada
gooll
reclama
loro
peje
ariel
##mer
tocaba
adolescente
supere
publican
despertarse
aula
zurdo
magica
##pita
dijimos
dpto
victorias
sacarlo
violeta
pajaro
##entes
oficinas
aprobacion
diras
usaba
ruina
toto
extraordinario
louis
geografia
madura
##mbre
##ifico
cambiaste
conducta
candado
renovacion
aprendizaje
planeado
volveras
sandwich
lozano
escalera
fichaje
despacio
mau
##eda
armada
dejarse
montaje
quitarle
##zz
fire
abran
vivio
atienden
salgamos
comuna
##char
rodea
soluciona
creditos
##ju
nocturno
certeza
discursos
facilidad
quilmes
lau
gilada
triunfando
bromas
gusten
completar
alcaldesa
burra
culiado
caray
recurso
pipa
escabio
devuelve
mueres
doloroso
palermo
recorrer
paliza
sistemas
discutiendo
denle
lindaa
porfis
adn
trans
bolsonaro
friends
compartimos
##rla
diversion
creatividad
reglamento
##madre
estimados
armani
##rido
interpretacion
infiel
chavales
concreto
manager
rutas
secuestro
millos
coincidir
respondan
camita
realizado
cambiamos
banana
tasa
sacarte
##guita
debiera
##ment
##pio
educar
hicieran
psicologa
invitas
iremos
accidentes
aguila
##tizar
cincuenta
tramites
mutuo
chicago
##rma
##etas
block
revancha
##bes
llevarte
##bos
valverde
educado
practico
##een
cometido
##icio
desaparecido
protege
minoria
estable
brava
habilidad
vizcarra
huir
jabon
gabi
europea
##hu
simpsons
reducir
posiciones
valoro
socorro
honesta
pesados
##bon
trap
cover
casada
machos
apuestas
##vido
conviccion
libra
mantienen
##tea
todxs
orlando
maya
azteca
irnos
manipular
comiste
afp
fronteras
suceda
adelanto
agentes
duo
injusta
prohibir
indicado
yes
dirigencia
tapada
mendez
detenidos
diccionario
circuito
invisible
mancha
elijo
serrano
##up
reeleccion
infraestructura
ap
lautaro
herido
##tic
logran
salgas
bajen
informan
bobos
parasitos
vulgar
bernabeu
##icen
aleja
tinto
faltando
despertador
racismo
borja
atenta
transparente
reality
ironico
acostumbrados
aguero
closet
pf
##ejo
considerar
agradecemos
chiqui
maravillas
radicales
engordar
##itado
case
cambiarme
okey
##lica
desigualdad
arruinar
dario
costos
huella
down
monos
chupame
pulmon
gimenez
expulsado
colgue
aguilas
##ent
negrito
sarmiento
avisas
televisa
paa
qepd
supieran
legales
alejandra
angela
anitos
toluca
oxigeno
##quen
##ass
cholo
shawn
disciplina
formato
fi
##eco
ajo
anita
gordas
penalosa
inmediatamente
suyas
vaa
carrio
nefasta
##doras
lesbiana
fallado
lomo
##pp
picante
pavon
puigdemont
africa
monedas
rola
transmitir
bandidos
despedir
incapacidad
alcaldes
intentan
amix
jack
tomes
##nica
humanitaria
agente
back
bob
pirata
rabo
clarito
walter
descubierto
subte
piano
asesores
taylor
medir
bc
##mano
ponganse
convivir
violar
batallas
elimino
arregle
contamos
ombligo
utilizan
arrecho
jodo
venite
camaradas
desnudo
lis
chanta
practicar
emi
desespera
creido
ponernos
curas
festejando
allende
pobrecita
mambo
creando
donar
contaron
electorales
discapacidad
##rena
oraciones
consume
arreglado
pez
papito
acostumbrada
##dilla
maletas
depender
curar
##dro
revolucionario
##oto
vital
genocida
consiste
ajuste
presentan
rescatar
actuan
friend
##ndra
pablito
tranquilamente
repiten
frito
helicoptero
mafioso
carteles
trabajadora
hermosura
separar
compren
mesias
conclusiones
deficit
masculino
diversidad
night
alejarme
australia
##aje
aprovechando
sensual
pistola
elegante
cajero
independientes
ofertas
tobillo
##pas
meza
pedis
voley
tratas
u0
banarse
mundiales
cuestiones
##mito
##ello
hidalgo
oaxaca
##tel
mallorca
verso
indigna
coro
sentarse
jackson
cantaba
tentacion
barrera
semi
rebelde
selfie
monumento
##dista
creciente
trama
comprobado
dedicacion
much
prometi
cardona
espada
estupendo
dead
mueven
##iamos
lazaro
nelson
golpista
marama
raquel
apunta
herramienta
frenar
confunde
publicamente
random
andy
salvame
entraron
reformas
directora
vaga
gobiernan
pasito
globo
casados
leonel
haberse
funda
campeona
disculpame
desfile
abandonado
bostero
violaciones
comite
fresca
males
mafias
##lico
pusimos
sudamericana
##cie
amare
riquisimo
cortaron
calmar
brother
complica
alimentacion
objeto
sucios
impecable
descripcion
peleo
consiguen
darlo
morire
loteria
zombie
yt
entraba
qie
ready
light
utiles
rogar
chale
##uto
dieran
uribistas
##py
quedaran
estufa
bronco
chapa
desempleo
dibujar
lenin
matenme
barriga
rodeado
ambiental
playas
ooh
##mada
##pito
hostias
rodri
peticion
senadora
felicitacion
andre
movida
##mismo
provocar
negativa
##zzi
##ft
##jada
tata
retos
trapo
pretemporada
god
echen
asegura
bipolar
merendar
juegas
ba
ciencias
notificacion
basquet
prepare
tachira
semis
chava
celta
comunes
materiales
mike
cogiendo
municipios
panuelo
##idades
difusion
tarta
amazon
scioli
unir
aguantando
comete
##cera
bastantes
pure
traga
resentida
municipales
encargado
aliados
cumples
eternos
pensa
virtud
jugadas
entendiendo
previo
artes
terraza
dedican
cumplas
again
millonaria
##iada
quedare
quieto
espiritual
##cu
##ku
poema
viajero
maracaibo
rama
penoso
##ney
ernesto
mel
alimento
hit
iniesta
##damente
escala
toodo
##fer
barras
secta
rezar
allup
callada
economicas
valgo
world
canas
bese
danza
pino
operativo
teo
##iando
with
##listas
lebron
serena
tuvieran
selva
solar
caracol
##tamos
##sis
quejandose
aguacate
nadar
nuca
leopoldo
abrazarlo
borges
eurovision
enojan
respondes
quincena
grabado
parrilla
coalicion
llevarse
magistrados
##litos
estructura
nafta
##js
pereira
dejala
chongo
grieta
lmao
maquinas
directos
desearia
congresista
henry
contribuyeron
##illas
informes
##til
adrenalina
raton
zapatero
potro
l0
##nista
lit
nacionalidad
extremos
autentico
superman
menciona
informado
directivos
##nce
afectados
oscura
siguientes
repeticion
ensenado
sonaba
##ense
hehevy
cocine
poli
palacios
##ral
demuestre
chelsea
habitual
citas
goleada
lesiones
blda
asesor
desean
entregan
superan
sensaciones
##jan
toques
viejita
vallas
escondido
vis
saldo
alegran
mad
green
##quero
relleno
preparate
robert
center
obligar
regalando
veis
abrazote
delanteros
acabamos
revocatorio
veria
quemada
shopping
programar
bacan
preguntarme
merienda
mary
mojado
gobernadores
cabrera
bae
llegaran
cuotas
verificadas
populares
tijuana
nisman
##rismo
##ah
obligatorio
abono
afortunadamente
magnifico
debates
baloncesto
crecio
aprenden
revisa
sismo
lr
mister
##uco
principalmente
eln
gigantes
valioso
llorado
dichos
herramientas
sports
corrector
supuesta
despertado
meritos
enterarme
agrego
##mpa
guerras
electo
crudo
cirugia
##ides
##lis
little
aplaudo
brindar
mentalmente
masacre
dormire
galletitas
metete
sindicatos
menu
lanzar
##iel
sub0
plomo
subida
tunel
comerte
guardiola
desaparecio
raices
trayectoria
##quera
amorin
bloqueada
entretenido
ambicion
ejemplar
refleja
engana
suspender
cuidan
profes
valoran
debieron
matas
merda
george
areas
lpmm
##rino
revision
idiomas
esclavo
pegarme
##nco
epa
agusto
caiste
saqueo
prd
hello
cogido
confusion
contarte
interesan
quisieras
embajada
exigen
##chado
besa
estacionamiento
##ija
cuan
ocurrir
torneos
soporte
saez
benito
##guito
supremo
calzones
centenario
##rca
aproximadamente
reia
liberales
resolucion
##rida
conazo
devuelva
alentar
catedra
demagogia
pondra
##sio
##lidad
garantias
vestuario
vinos
promover
prefieres
sumando
##ique
ayudarte
##jitos
boxeo
facho
caballos
posesion
contesten
contame
intercambio
invasion
superiores
quitando
charlar
reciba
##s0
grano
averiguar
bigote
concejal
necesarios
leiste
spoilers
quererme
conchuda
firmado
loquita
empiezas
vien
lagos
refugio
ozuna
asume
##nen
olvidare
asesinados
falsedad
llames
secundario
chupo
alivio
puntual
comentaristas
locaa
desperdicio
tatuarme
erc
escondidas
gotas
casan
deportivos
empata
est
apa
integral
adonde
consiguio
acceder
valija
##nca
denuncio
projimo
bocha
blue
usarlo
clavar
inicial
servidor
urbano
sw
asesinar
empleos
futbolistas
integrantes
chicle
##ime
dejense
decida
atun
##nera
repudio
escritorio
gallego
lobos
dialogar
siria
exigimos
apreciar
conceptos
incendios
celebro
requisitos
picada
tiembla
gripa
gobernadora
organizaciones
viola
manes
trola
##lando
magos
naciones
##bol
##ix
olvidaron
canarias
##iana
fmi
peque
bikini
##ek
##iga
necesarias
besoss
garantizar
tente
anima
##gen
logrando
turistas
archivo
repartir
leemos
creador
cumpli
uruguayos
adivina
indefendible
ball
tarifa
maiz
tini
##mus
zayn
quince
demos
jua
chaco
marce
interesado
levantarte
mascara
dele
nicole
gerardo
horitas
carbon
parejo
faciles
kee
vendieron
descansen
pestanas
rumores
portal
electronico
jueputa
convence
misiones
servido
arroyo
##teando
tendencias
estuvieran
vacios
manifestantes
polaco
colaborar
##jer
when
lomas
##dd
dibujos
guarden
mai
saldran
damian
impulso
capi
buscarme
org
rial
##melo
ines
luisa
ce
legitimo
saludas
bailan
queriamos
zamora
sagrado
pacifica
contundente
##rna
camp
godoy
may
ladrona
seg
pausa
unidas
preocupados
conste
reido
futura
ferrari
fuee
yegua
cortina
abrigo
chavos
##ree
esfuerzos
instalar
aparato
alias
trolls
simpatica
llamados
combustible
persigue
comedor
olimpicos
inversiones
cielos
vano
##chon
acho
culto
participando
ponce
procede
mauri
gestos
marinovic
hermosaa
##bir
yucca
federacion
avisen
solicitar
inventan
##telo
pelotudas
cuyo
entren
paila
##itar
vicepresidente
dip
cala
inclusion
hehe
ecuatorianos
ingenieria
##mina
feat
##ser
bueeno
hockey
estadistica
apostar
resuelve
##kes
##ore
verr
corrido
enganche
btw
adoptar
morbo
sam
simpatico
cecilia
patriotas
votaciones
##cina
obrero
chan
infinita
panaderia
variar
bonos
##kis
costumbres
tirania
ll
enlace
##dillo
sufri
##rno
alumno
decencia
ash
pacifico
anc
continente
##ier
rita
limpiando
tribunales
toalla
mill
remil
fruto
laguna
agradeceria
##a0
cristianos
viviendas
haberle
comerse
jalisco
meterte
foco
##pia
dominio
rural
mani
##mico
evaluacion
distrito
##jen
pilla
chingue
homosexual
bocas
vaticano
qu
levantando
suprema
continuidad
sabran
venian
peroo
plancha
anaya
cerraron
leyo
juntarme
cabra
beatriz
sencillamente
psicopata
paras
mandaste
desgraciadamente
pesame
chismes
codo
helada
individual
comas
festeja
puff
richard
incidente
muucho
##rre
portugues
agarren
dep
lastimar
suman
meli
carlosrivera
acompanada
bitch
##deros
atrevida
descargue
##quis
cuenca
mandale
divierte
decreciente
atacando
machistas
ql
chaqueta
dupla
emocione
piezas
ochenta
eliminacion
li
haciamos
entreno
malditas
mamarracho
halla
##jitas
anota
##dir
liberacion
autentica
box
caramelos
debiles
ag
chip
actualizar
##n0
##mis
deportistas
deciden
cardenas
digale
templo
universitaria
negociacion
##mentos
parados
desesperado
sindicato
verduras
matanza
mirtha
descarado
oportunista
camine
rodeada
##tras
cabros
ep
shakira
auxilio
traia
fernanda
hiper
emma
alfred
participo
##gg
diaria
brenda
comentan
anoto
##vic
agradecimiento
asesinado
tabaco
caravana
palomitas
cuentame
pol
twd
haciendole
mueroo
indignante
mito
now
incertidumbre
expresa
calientes
realiza
trabajen
bombonera
necesariamente
buscarlo
notable
sabato
quintero
caguen
##jon
destruyendo
turco
##quitos
mix
boludes
mediatico
##ata
antecedentes
creyo
dante
xk
encontraba
premium
islas
abriendo
desaparecidos
europeos
autocritica
salazar
patear
chingados
##star
enganan
epico
jaume
acuna
florentino
vocacion
recomendable
sufrimos
ecuatoriano
hueon
uribismo
monda
##sia
cracks
cifra
cuadros
bajaron
factor
need
besotes
really
aprovechan
##esa
educada
##oy
exitoso
zapato
gastan
trimestre
claves
io
ascensor
capricho
boys
lograron
pegaron
tuitero
gastando
##vismo
extranarte
pecados
mercados
calentar
chorizo
pile
octavos
trasero
why
olvidamos
similares
luchas
beca
pateticos
filo
impresentables
##ines
comentarista
rugby
isa
coja
jejens
recreo
ventajas
##riz
willy
dark
diente
prevencion
##elli
##mp
cupo
productores
cup
armadas
cansados
nisiquiera
jubilacion
stranger
tormentas
suficientemente
prestamo
prendido
protocolo
test
fichar
##yan
suicido
relacionado
ensenanza
frecuencia
labio
llegare
lilita
polar
agarrando
ari
aplaudir
qlo
pagara
hacerles
marcan
gabriela
##blo
##ex
adecuado
##ct
esperare
conmebol
queman
gt
##fia
comenzamos
##iera
sl
novedades
##tria
institucional
##queo
also
vil
guardias
karol
entidad
enamoras
samuel
floja
valiendo
ecpe
christian
graciosa
escritor
deprime
defienda
taquitos
simbolo
adelantado
correspondiente
nana
entregue
gc
##ort
faa
nido
creible
##mbe
verificar
metemos
correccion
edificios
equidad
kilometrica
conveniencia
##cilla
desesperada
okay
aguantan
comente
mogolico
cruza
rescato
##iste
##nie
weona
acaben
compatriotas
quitarme
interesados
##uno
juguetes
tardar
benjamin
romeo
##cy
##guro
##nea
hablabamos
anibal
comentando
enfermar
##eje
##ntar
bldo
digame
recordemos
##tible
tuiteando
colchon
bingo
tubo
pucho
alternativas
high
hoyo
olvidaba
nas
dirige
opera
sufrio
##zada
##let
reparacion
##lt
bota
net
chamuyo
cerquita
morro
##king
aroma
asturias
##dismo
lanzamiento
liberar
##ala
militante
sabelo
banquillo
ventanas
##vin
investigaciones
temblar
carajoo
tomaba
enamoran
malandros
vigente
##im
##ins
figuras
tardan
cachetes
correos
pasadas
trates
chupando
industrial
##ucion
nevera
##vis
freno
cima
niegan
pampita
soda
caldo
jon
##cimiento
metia
muyy
exponer
fallando
##cando
##vito
flipando
kinder
##gna
proximamente
cha
pillar
episodios
empedo
arroba
##z0
comieron
filtros
rick
twits
presidenciales
basicos
brackets
pasados
##nados
estuvieras
porta
reposo
pasillo
epn
forman
provincias
aragon
##neros
khe
entrenando
chiquitos
mientan
abismo
solicito
tirano
organizando
##zco
protagonismo
paio
minita
moco
ff
juicios
##zando
galan
tamos
topo
aya
varon
vallan
leonardo
perdes
creerlo
soporta
alquiler
incluir
separa
##gido
carreteras
mangos
tacones
vendan
afirma
##arte
tremendos
categorias
sumamente
perpetua
##rera
##quilla
infinitas
peluche
marte
alpedo
##aca
expreso
olimpico
comenzando
luli
ebrio
importaba
##haha
destruido
lave
edgar
modric
mioo
##iso
exo
trujillo
depa
esencial
avanzando
regiones
cria
##tus
fachas
eficiente
william
envian
luce
despierten
beriso
reclamos
viniste
muevo
pala
tomara
pisos
##gues
comparten
generalmente
barbacoa
reciente
cortando
volvia
pollera
gratuita
rompiste
##ila
aprueba
obligan
prendio
capturas
clarisimo
pesadillas
baba
prenda
ebrard
balance
comodidad
ramiro
golpear
##eada
ebria
##ues
buscado
patricio
##deria
eclipse
valeria
pudre
manta
merecer
##leria
##lear
##ere
alarcon
burros
vencida
existan
decepcionado
almeria
##kin
fichajes
desmayo
oscuras
adidas
##bel
##bito
pillado
basque
nike
cabral
cordero
dependiendo
##bal
colgar
corbata
percepcion
##lino
ia
llamamos
esc
quintana
formal
podcast
anteojos
aprobe
riesgos
oxxo
teme
##cc
kirchnerista
solidario
##dis
cinta
nochehe
mear
multas
pibito
##arios
atlas
camacho
telefonos
ero
capitalista
##lp
##sela
negrita
pintan
usd
brutos
confesar
navidades
jordan
gobernando
vejez
primarias
cargan
hocico
deportista
ayala
mirame
##ificacion
sorprendio
rusos
vence
absurda
bate
pascua
fueramos
dormimos
##tilla
cam
preferencia
guantes
starbucks
amargura
tortuga
##ibilidad
mueras
reservas
atreve
##sky
amaia
valida
chela
ambito
tantoo
cordial
pretexto
##ifique
tradicional
dramas
telefonica
sacaba
vacias
##ora
vieras
caceres
##dios
grabando
rosca
nel
describir
anuel
##laa
maneje
pacos
leandro
balvin
dejad
aburri
chaharos
velas
soria
##way
suspension
doliendo
twiter
refuerzo
##ich
karaoke
homosexuales
paisaje
luchan
##cracia
jornadas
fallan
dispuesta
verbo
educativo
##etti
trono
##uera
delgada
mocion
japones
paisa
admirable
lourdes
churros
xfavor
limpie
confundido
aumentan
truenos
clau
fit
baratos
masiva
toni
operaciones
valia
capriles
creeis
fresa
mintio
hartos
aprobo
gago
tamales
disfrutado
judas
bss
condolencias
impedir
lanzo
dejarnos
##ril
siempree
moises
##rear
##vado
ensenando
muestras
arme
casino
retira
saldria
##erto
atrevido
saltan
puentes
lavo
porteno
suecia
sinceros
juguete
##llon
marea
liguilla
gastado
will
osvaldo
tempranito
presentado
ess
pagarle
judios
acuerdate
graciaas
ordenador
triunfos
comprobar
preocuparme
generoso
##ficar
despertando
##gente
recomendaciones
causo
sillas
exitosa
sempre
##guen
golden
bares
bloquee
odiaba
##x0
soberano
moverme
conocerlo
##racion
dimelo
lechuga
##pos
poderosa
bardear
afortunada
asada
volo
latin
##vez
milicos
tene
canasta
laurita
vallenato
sex
futuros
cigarros
sm
recordo
pachuca
ahogo
liar
##ei
##jado
dandome
amparo
confiable
culera
particulares
verda
##nk
imss
torpe
##tillo
organos
aportes
casamiento
conquistar
panales
retrasado
prof
corro
bot
guapas
ji
cuentes
prince
skype
frank
huea
loquito
woow
mantenga
americana
indios
amargada
carceles
muerde
##quete
haciendolo
atrae
derrotas
gnb
pld
pelao
salado
unida
reconocido
equipazo
pretender
##daa
alcanzan
mogolica
consumir
cuiden
##ecer
apoyado
infumable
todes
##inado
salvado
daremos
virgo
excelencia
acostumbro
sport
##quin
open
secuaces
##reo
estarias
bichos
gustara
##tida
burbuja
##gre
originales
tinta
tiburon
##cidad
carrito
##rea
mms
regalame
musicales
justificacion
##igo
rodean
adolescencia
encuentren
preguntaba
honestamente
humildes
odioo
explican
cigarrillo
tamo
consiga
pepa
entenderlo
##eas
comience
##op
mark
sorprender
disfrutarlo
##gal
youtubers
##rlos
criatura
hablaste
esclavos
tocas
controles
traduccion
oigo
comprate
subes
guerrilla
disfrutalo
extincion
dejarla
bucaramanga
cl0
acerco
insulta
investiga
oculta
##zer
decadencia
carrillo
empatar
ancianos
representar
cocaina
falda
arabe
##field
organismo
climatico
sandoval
moderno
egoismo
fascina
acostarse
tronco
crezca
tales
sudor
pdc
lloras
carnavales
tomaste
desespero
pava
imaginaba
automatico
##lly
irene
peleamos
demente
naco
dictadores
cerradas
actuaciones
bestias
gladys
constancia
coronel
rompas
##bado
siembra
noe
amos
meh
know
##dica
aproveche
bamos
aburren
equivocas
maca
pisa
##mex
insiste
contas
jersey
pitu
reparto
envidiosa
fabian
dispuestos
clan
agradecidos
ineptitud
##dente
ligar
ortiva
faso
jerarquia
bando
morelos
##ivas
##uo
existo
aclaracion
nick
xbox
canciller
tenerlos
detencion
estrategias
pam
pudieran
temita
editorial
olvidando
defenderse
relevante
crecido
mayonesa
valdivia
declara
duermes
pseudo
##taa
circular
llevarlo
tapia
##dico
consta
estadios
##ling
muestro
alza
mandaba
confiamos
correctamente
sanz
romperme
casta
marti
besame
boom
ponerla
faltado
karina
timbre
urgencias
integridad
ruidos
publicado
##tino
porfaa
##nacion
rocha
moscas
bandido
cucaracha
empecemos
caramelo
llovio
##puta
tigo
##din
especifico
pretendo
canchas
casaa
corazoncito
verdaderas
paquetes
acertado
dificultades
arreglamos
extranos
crecen
##ulacion
completos
cantera
considerado
loa
carnal
insultando
guau
legisladores
estrena
nm
arreglan
habras
esperabas
cubana
inclusive
confundas
##rga
nacen
dolia
metiste
consultar
holanda
coldplay
adopcion
uk
stand
construye
lograrlo
aleje
macrista
necesitaria
cambiarlo
debera
juventus
ignoran
entiendas
yerba
agrado
escabiar
legalidad
abrazame
mamaa
delpo
rre
ahaha
prejuicios
amanece
campesinos
participa
pami
mutuamente
aficionado
izq
daras
legalmente
comprarle
llamarse
sj
objetividad
opositor
robaste
anotar
sudamerica
luto
sembrar
##sado
ente
placas
concuerdo
tq
ajenos
vicios
armados
##leros
ene
maestria
perseguir
##uela
riquelme
hablaban
kiosco
##tch
citar
delia
marcando
cho
##polis
inventa
angie
francesa
##eso
independientemente
slds
entregado
porte
##sso
convirtiendo
decepciones
pedirme
suspendido
entrena
planeando
muestre
##gados
##dose
eligen
asuncion
plural
im
llamarme
ingleses
repugnante
stream
titanic
libremente
insolito
never
separacion
viceversa
tramo
protagonistas
especialista
##fan
ofensivo
##oa
liquido
mais
inauguracion
regalas
tomi
abortar
lesa
sorprendido
grecia
cinicos
burgos
cagamos
magdalena
publique
revivir
rcn
anual
producen
chances
mara
justos
hoteles
innecesario
xdxd
temblando
conflictos
micros
caprichos
ocurren
cobardia
bahia
fiera
progre
##menta
preguntes
morata
celebran
operar
sostener
dybala
grupito
guerrilleros
perla
revise
apoyen
##d0
bebidas
stalkeo
movilizacion
caben
morsa
catedral
pasarlo
tel
abstencion
prometido
escucharlos
vasos
hptas
dividir
catolicos
ezequiel
email
acido
borrado
ffaa
disfrazado
##t0
dic
guacho
productor
definitivo
ignoro
bailes
vena
almagro
crio
cucuta
desarrollar
hate
perdonen
roque
armonia
rose
mandarte
orientacion
ko
mayusculas
alo
confunden
ios
cantado
chelas
##mela
publicando
tirarle
utilizando
gratuito
azar
hahati
ticket
giladas
mee
tm
ceja
respondiendo
griezmann
incluida
apoco
##ning
exagerado
informate
mon
colapso
marc
lidiar
vandalos
nou
castilla
juanpa
cantas
##ision
cornuda
plenamente
discute
tocaron
jimmy
##loo
morder
boston
masaje
vendidos
proponer
aragua
madero
marginal
ajenas
satanas
subsidios
inventado
virtudes
saludarte
fiaca
mantenerse
financiera
revienta
cagones
tvn
teorias
cemento
destruyen
catalina
recomienda
nice
ka
glorioso
cortante
zapata
aburridos
##tua
##hy
informando
violan
militancia
insultan
##guera
marian
amanecio
hoyy
profundidad
ausente
decides
##dome
desgraciados
helados
##leo
desconocidos
fachos
saludan
borregos
recupera
espuma
zorro
##ama
logramos
antioquia
avances
burlan
##tario
##ctivo
##iencia
##ivos
conscientes
school
ganes
chusma
jalo
moviendo
poderosos
despidos
hombros
bajada
kast
anapastor
idiotez
##xi
atte
denme
reyna
contaba
saul
falten
##ulos
senala
stories
gobierne
explicarle
comence
##bus
paralelo
escribirle
##pera
##anos
restaurantes
morocha
factores
cheque
ibarra
montanas
pep
creencias
llenando
dorado
callan
ofrezco
repitiendo
setenta
cafecito
aprendemos
suplentes
army
##pen
zmg
compartido
oi
line
medicamento
semanita
fp
oculto
##ores
agarraron
chivo
penca
elimina
##quillo
guevara
psiquiatra
grabo
ninez
cruzado
##vando
hacerlos
fotografo
putin
eli
desesperados
ochoa
##hita
##fre
lorena
pertenecer
leerte
diferenciar
ensenaste
sentados
ter
##ther
##ristas
llevare
maravillosas
puerco
##pada
charly
coach
positivas
##mica
dela
##elas
laboratorio
lapiz
pajaros
complejos
dineros
cumplee
explicando
sida
irresponsables
huevon
perdia
natacion
dijijiron
cerre
trabajaba
##zuela
daa
instalaciones
prepotente
garron
sacate
##cano
loko
vinito
tss
conocio
sorteos
let
ci
##logico
conocerlos
alfajor
estudian
honorable
asalto
cordura
sugerencia
federer
pegas
callas
resume
considerando
conocimos
ganarse
fichas
cenizas
aparentemente
innovacion
putisima
experta
##enos
carrasco
jonas
followers
cache
fv
disponibles
desempeno
sordo
peruana
eligieron
hernando
aplican
cobraron
defensas
sele
grises
ansioso
##od
aplauden
##usa
casarme
ganarme
versiones
ccs
hi
monja
olee
camisas
garantiza
silenciar
regionales
cantantes
chupan
##yy
agujero
##logica
bk
hillary
ciro
faltaron
argentinas
deprimente
quejarme
afectan
taanto
##cista
echas
extranjera
conectado
atropello
dolido
cnn
campora
kun
##tros
varones
##rk
aldo
stickers
apto
textos
sabana
perfectas
esconden
##ire
farandula
aitana
peralta
tarados
pesca
relajo
##cieron
alarmas
arreglen
resistir
signos
jueguito
rc
conteo
escasez
af
##mana
gatitos
residencia
##mee
desconozco
mueva
masoquista
##cula
##ares
ase
permitio
hacerlas
medallas
beneficia
fallos
##tona
tuviese
centurion
gobernacion
veronica
houston
##udos
saliera
malvinas
compromisos
bosteros
haci
arruino
parasito
convierten
cuaderno
laburando
##ucho
paraguayo
pas
isis
anonimo
ofenden
ayudado
afectar
blas
arepa
tristemente
impone
firmes
guerreros
reencuentro
##ificar
##ncho
miralo
aro
incapaces
##su
##ndia
fut
cuelgo
e0
tomada
explicas
##fas
existencial
entusiasmo
indispensable
depre
encontraras
irresponsabilidad
mufa
obstaculos
curriculum
necio
flequillo
montado
ciclistas
separados
noma
hubieramos
pistas
despiertan
##has
cientifico
vuelan
pavada
imparcial
tactica
despreciable
funcionamiento
miga
tomare
compartirlo
reportan
equis
remedios
##chero
latinos
valparaiso
pelotudez
conectar
jajasjaja
bots
gallos
consultas
pamela
hn
intentas
ulises
furia
pulso
##nico
esperaban
heredia
tecnicas
acapulco
##rero
lema
apagon
barbie
extras
funes
paramos
bloquean
decentes
parecida
asistente
horacio
ere
pto
aventuras
malisima
bsc
ignoras
competencias
candy
independentista
quisieran
telefe
calme
ora
season
y0
morado
aumentos
caritas
aliado
##quia
escuchaste
styles
politik
afortunado
atado
naciste
reportar
inspira
prosperidad
felicita
##ted
work
meade
fuaa
bueh
##jj
echamos
recordaba
bombo
olas
ds
sole
vai
puteadas
##m0
otero
migrantes
caera
globos
marque
##icia
rompes
atraso
selfies
male
sobres
ocupan
perverso
sabria
selecciones
conecta
##rata
pardo
juridica
##aste
nenaa
sesenta
cansas
dirigido
aportan
catolico
desaparecen
libertades
salvan
limpias
saldre
viral
convocar
bellisima
gravedad
deba
asuste
vii
ponian
udi
enamorando
res
educativa
care
reconocen
recupero
iras
apodo
##ak
nefastos
dir
pasare
valpo
islandia
tango
monta
noventa
bugman
umm
##ritos
elefante
##gro
instinto
enojes
ricoo
icono
##sar
##vy
##i0
seriamos
##bido
asilo
beta
##ule
nairo
profesionalismo
gustaron
##ap
actue
juntarse
rdt
##lacion
organismos
maravillosos
nintendo
##rillo
pagados
instrucciones
economista
##boy
marcela
multiples
bondad
actuando
inferiores
causar
pensaste
vieran
madruga
corrio
pensara
##vil
yeta
pactar
genocidio
gorro
penita
##ividad
animalitos
visitarme
siestita
suegro
regalarle
mangas
ramo
causan
adriana
paty
##ard
##iones
##cero
carabobo
habrian
corten
interpretar
##quitas
cuarteto
remeras
gozar
soles
clasificar
intentos
##tividad
samsung
realizo
distribucion
##amente
rp
putita
vendedores
freddy
populistas
recordarte
peinado
estresada
finanzas
mj
suspiro
usamos
pasaban
yankees
bolita
identificar
productiva
##ficacion
certificado
amiguis
##del
pauta
romperla
tocarte
tirarse
contactar
alemanes
parques
trece
quejes
preguntandome
clausura
uwu
amarillos
pliss
hogares
delegacion
prudente
alicante
macarena
currar
brown
tapo
exacta
imposibles
brujas
american
##ham
morimos
prado
mariposa
tuiteo
asquerosos
faltaria
pedacito
neoliberal
vencio
adecuada
demi
robot
sucre
manolo
grosero
orilla
recibieron
mena
conta
nalga
mariposas
next
investigue
fresquito
loma
##distas
encerio
moro
hazte
kim
##tazo
balones
rihanna
##gamos
encontras
consideran
cornudo
white
casero
supermercados
rivas
##tante
##dee
asientos
##adores
##vel
afirmo
antemano
maa
leia
tino
comparado
porota
votaria
##chen
chihipas
manches
invitada
tips
sexualidad
granos
disfrutan
magnifica
americanos
##yen
intro
cadaver
##gate
anatomy
inaceptable
pedirte
murillo
guey
valladolid
caza
way
fume
huellas
autonomia
alfombra
cubre
nabo
##llar
##ell
agresivo
trampas
wachin
desayunando
pasajero
coloca
capacitacion
##gica
##ret
podiamos
tapado
zoe
cables
ciclon
td
iris
clasica
atrasado
manito
plate
andaa
##citas
ambulancia
ye
quitas
cometio
turquia
perfiles
expo
panel
nano
vel
eliminatoria
sugiero
nego
atractivo
construyendo
pelada
##rete
lugo
atraccion
basto
reclaman
sep
apagado
tolima
uuh
enamores
thomas
resfrio
gomitas
participe
confort
menta
berlin
caerle
porteria
comunicar
aseo
procedimiento
lleves
intolerancia
malparido
mientes
reimos
intelectuales
pollito
mtv
##itaria
avellaneda
inmoral
prestan
angelici
protector
pasaa
get
observar
memo
##timos
pelotudes
supuestos
manso
bua
carp
transmilenio
bolsos
ordeno
alfaro
apocalipsis
pajeros
qur
ensima
calmo
bianca
haters
##ices
clinton
lleras
shows
getafe
conveniente
monaco
botar
piratas
reparar
##lda
llevaste
melon
comeria
melo
llamarte
echaba
##ramos
cmo
luciana
tiraba
juzga
opine
hilos
infinitamente
exelente
comerciantes
descarga
fds
cargas
##tana
puno
participantes
##ame
pacheco
##ple
quejando
parir
obligaciones
lejano
##isa
acuerde
hbo
votare
zarpado
imprescindible
fanatica
redaccion
basicas
menciono
enfoque
economicamente
acusa
servidores
apruebo
ofrecio
##cca
asensio
redondo
efectiva
turbio
comprende
dictaduras
##kas
torno
talvez
##lco
padron
##ntado
iguanatv
insoportables
directv
##san
nadiee
##rp
seguirte
tolero
stalkeando
angelitos
besote
morirse
cercana
##duras
ine
amorcito
juzgados
tronos
aguantas
aceptarlo
lentejas
romano
desaparicion
pibita
bolivariana
amplia
sabremos
##mero
silvestre
##remos
pensaron
garchar
##lta
presupuestos
etapas
falcao
largar
flipo
##ncha
exagerada
curry
irr
regalito
mamo
explosion
vendedor
masas
##b0
pille
empezaste
jones
##mera
llegaria
##pero
athletic
augusto
gatita
gustaban
honra
piensalo
metodos
asiq
##cados
trataba
extraordinaria
apartamento
descansando
masivo
##centro
ofensiva
amarga
elimine
patino
anhelo
amargado
kien
saqueos
##itis
tac
pilotos
hacelo
levantate
prevenir
organizamos
aznar
ideologias
moderna
transforma
bullrich
respetable
pajarito
sordos
progres
nati
destacar
##logos
##ega
rumor
agresiones
antojos
historial
sostiene
##c0
intentare
dormis
discoteca
asustado
puteando
##wa
ahihi
compraste
caracteristicas
anillos
ivana
sanar
navideno
lante
lastimosamente
notado
maricas
mier
pongamos
afrontar
vandalismo
##mino
acusar
kms
aparentar
razonable
intervenir
##nio
##xd
alfajores
cuelga
paramilitares
bolivianos
groso
id
testimonio
indicada
parana
##chera
##vision
carpa
cerdos
moron
arrepentido
insistiendo
juridico
arrancando
junte
##chin
compasion
chihiuahua
exclusivamente
have
influencer
puma
##ben
mamertos
num
liam
escucharon
doblete
explote
acusacion
mts
et
cupula
tontas
vocabulario
##kk
##tadas
retomar
escriban
canalla
apellidos
psicologico
atv
iquique
entrenadores
sacara
charles
valoren
mediatica
##tones
hermosillo
realista
aylen
quemaron
lloron
rn
parche
thrones
destruyo
sony
##gie
guagua
##au
intimidad
modificar
empato
rapidamente
hunde
salmos
bian
platano
extremadamente
bernardo
cristiana
despiertas
renegar
paradas
tenerife
oreo
corpino
cosecha
papu
casillas
fantastica
qui
jp
mantequilla
brinda
bancarme
##titas
optimista
incremento
interesada
desgracias
pose
##ntal
relaja
nacieron
jala
retire
terere
duermas
##mir
existio
gentes
inmediata
golf
elemento
preocupar
mamona
ceder
preferida
##gencia
dejarlos
comisiones
picar
money
##ting
##lma
ome
##cazo
encantaa
domina
cuchara
fragil
divide
michelle
peste
mantengo
##iento
amnistia
querra
consumidor
canela
temer
larreta
##tano
##xe
campamento
costaba
tuvieras
mandes
solicita
culiaos
prestado
##lizar
tbn
tann
nin
cancelo
gordi
parlamentarios
martha
wolf
mejorado
buah
yeah
##rgo
humberto
cogen
criticos
frustrado
cargue
diarrea
##rco
old
saques
people
elegimos
##ets
conduce
##bero
mejoro
juaa
pandilla
pedidos
jugas
wanda
libreta
##cible
andrade
cuestionar
moviles
atroz
indice
resentidos
garzon
riendose
elegancia
abc
fortalecer
instrumento
exclusiva
pise
envidioso
contraria
manteca
choferes
pekerman
diagnostico
abu
alves
jam
bandeja
pintado
##rrito
juju
##mundo
videojuegos
espanto
bff
investiguen
aguilera
sospechoso
culiada
sabios
tlf
realidades
##xx
switch
dignos
mitre
ayudara
chingona
true
fracasos
cientificos
ago
existiera
estresante
matarlo
terceros
universitarios
flojos
urb
puestas
##gp
roll
devuelven
inesperado
preciosas
chiva
demandas
legislativo
kike
superioridad
k0
etico
cute
delivery
burlarse
casting
copias
guerrillero
tri
adulta
washington
ocupando
##guero
##jin
carriles
goza
escrita
rrss
bulto
primita
caidos
oscuros
alitas
amoroso
veian
grandisimo
periscope
cure
sueltos
arrecha
ordinario
celebramos
weey
vistas
investidura
huy
##cional
temuco
injusticias
aceptado
casarse
besas
tricolor
montes
mins
gbno
juliana
thihigo
traumada
megas
subsidio
##xia
pis
mares
##pone
sao
habana
sindicalistas
contenidos
muebles
paolo
diarias
##ow
##rl
##use
brindo
festejan
##cky
aprecia
cal
caridad
cabina
admirar
ga
fijar
##nitos
reduccion
gringa
seguiria
texas
tws
agarras
penaltis
bachillerato
valdes
adri
alineacion
preocupen
barbaridades
discusiones
separado
##rras
molestando
sorprendente
zombies
encarga
living
##dal
dialogos
atrevo
escribia
quedarnos
continuo
atardecer
invicto
moris
antena
alado
run
aplico
propiedades
antiguos
callados
fracasada
bsas
financiero
rechaza
iv
sh
espinoza
##pu
guarani
denunciado
marley
##oga
nro
##cino
aki
inda
sabrosa
streaming
gozo
oler
gorila
entendere
dsd
enfermera
boxer
prepotencia
mom
nauseas
patatas
jonathan
collar
acomodar
baires
densa
bauza
mojada
comunica
enloquecer
confie
katy
salte
salada
##inar
mujica
calentita
permitas
recordamos
chida
restos
expresiones
fest
rapidos
espanolas
rip
refugiados
bancas
##far
opinando
erick
piropo
pu
##g0
pechos
alimenta
alimentar
rosales
banque
contestado
pes
##titos
##ity
castigar
twitteo
juegues
trinidad
##e0
taquilla
despacho
nula
estudias
walking
sorprenden
coincidimos
infantiles
formo
aprovechen
##cci
eliminatorias
finn
emo
##col
##guez
manas
peluca
rompemos
favorece
leicester
##itando
pdvsa
condenados
nombro
maje
termines
villarreal
dms
iu
yisus
caidas
maracay
aparecieron
infame
salvajes
manzanas
delicado
dirian
solitario
buitres
##cco
noriega
acordo
creyeron
escritos
recordado
##sivo
##cher
licor
reporta
aguacates
nutella
planteo
acusaciones
cumplimos
recibimos
sinaloa
deposito
franceses
cupido
siestas
adelantar
conjuro
regresen
##uma
apesta
##dr
sutil
conquista
##riendo
dominicano
outfit
elevado
vacuna
curva
pag
aceptacion
asegurado
epica
resuelto
paseando
acierto
claroo
aplique
she
inmortal
lenguas
robledo
aw
chinguen
irma
dylan
pescar
condenar
cra0
matricula
arriesga
generando
rodando
reacciona
zurda
abrieron
wena
justas
##est
rector
progresista
##bida
titi
libertador
paraa
##mx
gemelos
monarquia
##gona
callese
moverse
lionel
marino
partidas
poste
gobernado
##grado
uuff
propositos
##lazo
benedetto
creci
fije
peces
utilizo
hater
afirmacion
atendiendo
madridista
mh
permitan
estuviese
bolo
diariamente
mensual
equivocarme
menem
dobles
bi
sexenio
empezaba
pao
nadamas
incluyo
##if
luca
alemana
consciencia
olvidarse
solari
pariente
recetas
tostadas
pepo
viejitos
merca
poneis
##dp
sant
ordena
urbana
yogurt
segundas
soretes
express
##ture
##aro
calentura
acudir
thanks
televisor
##esta
##nche
defensiva
converti
homicidio
sucediendo
creadores
caguamas
posadas
lucero
ilumina
##tieron
##nistas
nominado
##gel
arder
saltando
aguanten
crueldad
mamando
jimena
orgasmo
magnitud
tenerme
ahorros
paros
religioso
reitero
##arr
evitarlo
pintas
palta
periferico
prendida
nulo
pegamos
judiciales
##rados
mismisimo
acompanan
mirarme
escribis
##undo
conce
peligrosos
tranca
zarate
perdedores
banfield
toxicas
jajaro
odiosa
calzada
##fon
regresan
nombra
festivo
fluida
romance
honda
ordinaria
llevaria
inferior
juniors
##ulas
clausula
ordonezm
drogado
michel
autobuses
mirado
vot
chantaje
pool
##loga
hubieses
##ens
encantaba
nov
afectado
mambos
religiosa
nv
who
parra
morq
quedaban
##fera
campeonatos
mardel
reirnos
flan
##landia
encontrarse
twitteando
##und
##udan
obligada
papitas
##mann
capacidades
##cian
convierta
upd
competicion
##day
arriesgar
buscare
rod
juntando
convencida
occidente
cartes
val
organizada
tablet
municipalidad
ferro
ofensa
checa
godin
panqueques
videoclip
chingando
soberbio
##poniendo
haganse
calladito
niall
cuidarse
anecdotas
visitantes
##nme
##cura
linares
q0
##nando
tape
musico
envidiosos
jueza
ancho
tropa
platonico
##mentado
diles
abundancia
##sha
cajita
colectiva
ingenieros
##decir
##lee
durara
desconfianza
reacciones
reemplazo
expresidente
soja
boe
burocracia
yoga
cinturon
reis
anunciar
##ux
mamado
##aga
##ons
casanova
sonia
carece
madridistas
nancy
funeral
chato
oligarquia
##dea
##zzo
squad
jujuy
respondido
empeno
iman
##queta
##tr
dance
devolucion
depor
rehuso
comodoro
doctorado
conozcan
mirate
##ctos
vv
navas
mezclar
fibra
##cks
figueroa
hmm
optimismo
##jera
fundamento
anticorrupcion
quebrar
cacha
alfa
sorprendo
gcdmx
tamal
enganado
zapas
vagina
intermedio
delirio
gilipolleces
lujos
preferible
emisora
eficiencia
frida
##kos
mercenarios
maru
nacionalismo
##zza
alejarse
salamanca
alvarado
anciano
dunhill
nave
obreros
plana
carisma
suministro
resiste
cortesia
intentes
pudiendo
llamarlo
amarillas
abuelito
tuitera
obligo
visual
revisando
grandioso
ofendido
primito
diabetes
matamoros
conocerme
avanzado
indiferente
manteniendo
letal
apareces
##llero
versos
family
hype
planificacion
perico
##sidad
carmena
dps
embarazadas
culpas
implementar
sublime
hueca
pertenecen
laterales
menciones
empresarial
proporcional
recortes
##trar
vinotinto
exclusivo
malena
dimension
excepciones
ria
ligera
decirnos
##mu
##tiza
enganando
rezo
vergara
salvando
deprimo
indigena
cuya
postureo
brasileno
buscate
atreven
traiciona
volcan
charlie
rene
contreras
asusto
##chan
##cular
##hes
procurador
sello
kmh
##chada
gendarmeria
##ack
carvajal
revisen
##rrea
emm
moon
trigo
lame
corri
rejas
##jero
atm
nona
chata
corner
corredor
palito
hurtado
costando
##urar
tortillas
impune
vayase
patriarcado
cuestan
tiernos
comic
escoba
pete
baboso
estetica
crocs
nacidos
totales
mota
enganchado
turista
guillier
cenando
ong
voluntarios
dany
ilusa
ponle
compraba
rechazar
contratacion
##ford
contestame
huevadas
##sal
coruna
entregaron
lolo
##tm
algoo
quitate
causado
contare
academico
respetuoso
casemiro
gemelas
fomentar
latam
especialistas
culiacan
estaa
basado
iluso
benja
jure
##uis
##berto
cumplimiento
dada
lujan
dejaban
comunicarme
trucho
pagaria
bocaa
anormal
salian
vosotras
sento
presentando
grabacion
emitir
cules
sesiones
colaboradores
ciclista
ganancia
orozco
boludez
anecdota
internos
completas
pascual
pita
bernal
poniente
bendecida
justificando
sabina
desee
indignado
arruina
interese
cortada
potable
llendo
esquema
sf
limitado
tantito
chats
caprichosa
ts
##pre
traslado
incluidos
##quea
jc
senalar
despejar
grosera
##ladas
doritos
##mal
rogando
unen
aldana
humanas
farsante
acusado
pintos
##hen
##iten
esperame
romina
pincha
solia
privacidad
flujo
cumbre
defiendes
adquirir
abue
potente
atentados
donaciones
agresiva
condon
pincho
plop
cabal
pedrito
aburrio
cercanos
frita
icardi
recomiendan
lore
williams
importara
explotacion
abdominales
portatil
becas
nicky
cobrado
toa
##gy
emputa
desastres
legitima
nio
labura
preventiva
cuadernos
increiblemente
cerati
picado
##ecta
##anta
##ntos
cicatrices
apariencia
ell
viejaja
rombai
aceptas
rebelion
fluya
fracasar
tardando
confirmacion
contador
suspende
golpea
tuca
pulsera
declarado
joker
over
ns
confundi
bombones
cp
fantino
jazmin
yas
gr
ceballos
delantera
jura
reconciliacion
##eva
comprometido
levanten
isidro
made
ronca
denso
trague
sheheran
calentito
barbarie
comimos
provincial
costillas
reza
entendieron
from
vido
casaca
permanecer
acerque
inconsciente
sentira
cagarse
tardado
comenzaron
racistas
anatomia
jodes
mortales
neuquen
caleta
burda
probabilidad
##rana
repitan
bendice
alos
quejamos
##eiro
##izadas
##ecos
boliches
invitame
##rde
acero
dueles
##gico
tv0
tapan
secas
apoyas
corral
drake
fcb
aguinaldo
estatua
previas
grada
subirme
intensos
pretendes
valore
vagancia
##bando
ml
oportunistas
tumblr
buenaa
joan
gobernante
habilidades
villalobos
##endi
poncho
acordado
indicar
ciertamente
probando
emiliano
##letas
delfin
comunicarse
locutor
personita
##oro
pichetto
machado
boludear
denis
fitness
how
deseado
cloacas
actuo
sky
galleta
##jjaja
descuentos
turnos
preocupaciones
rioja
dependencia
realizan
disfraces
dormidos
muertas
vulnerable
yuta
companias
seda
##well
confirme
incompetente
wii
##ude
pongase
pony
eternas
##marca
funcional
aiuda
chaleco
usaron
desayune
estallar
judio
comando
melodia
kirchneristas
rayado
progresar
abuelas
temen
buscarla
alegrar
pin
prohibe
##gu
malestar
##rrita
twittea
cagados
peaje
rigor
was
enfrenta
comico
fantasias
engancho
llorona
mecha
escribas
maluoficial
pola
tincho
bailas
##ges
car
pimienta
ema
hermosoo
compi
migracion
ultraderecha
atiendan
subis
guaro
##wn
pastorutti
chacho
musicos
mostrado
autores
convicciones
princesas
despedidas
analizando
andaban
labores
cagaso
chill
eve
bby
labial
ahogar
copio
gallegos
sagrada
acercan
mercenario
villano
##nismo
##pal
bufanda
##mel
expectativa
provocan
conde
lemon
##gida
tengais
ori
brancatelli
echale
prieto
culeros
##ndas
partiendo
actualizo
##dada
lentos
melancolia
pele
parroquia
##ght
muda
remontada
suso
jessica
ingresa
obligados
##hue
mascherano
lavando
uva
procura
animar
amargos
consideracion
balazo
ridiculas
esclavitud
mananero
cansando
ordonez
##rros
andaria
churro
cuervo
ojito
vientre
socia
viajan
##out
creerse
morelia
riendome
continue
betty
##moos
conduccion
ezeiza
estoo
luisito
habito
rebote
presentimiento
##mbi
##ip
orion
nfl
lucio
relajado
mejoras
##ilo
comprarlo
oveja
rufian
clavan
miley
notan
ei
beyonce
puntas
aquino
higienico
encantada
haberla
afirmar
requisito
##uca
pasivo
robarle
cordobes
doctrina
prendi
##cendencia
lf
##cial
jardines
sente
teen
cuidad
grabe
surge
her
expulsar
tabasco
amigxs
guajira
anadir
bizarro
##aso
explicado
horita
chicha
lia
entretenida
##frio
llevate
ciclismo
confirman
queje
chin
##ono
tolerar
cancela
cruces
alrededores
reclamando
karla
##etto
metele
directores
feli
cerda
##ulado
bachaqueros
corrida
empezare
##iego
votante
aida
abdomen
##deras
avilar
comisaria
bulla
llamara
rateros
w0
neoliberalismo
descubrio
cta
traiciono
contestes
pen
hectareas
quedaras
##ac
tires
divorcio
galaxia
##hos
continuacion
polenta
erika
homero
##llera
denuncian
acta
##age
matamos
mundos
rodolfo
sueter
##siva
comunicaciones
##illos
dinosaurios
pavos
evaluar
quebrado
borrachera
ries
okk
vasquez
ascoo
win
jaula
finca
huecos
desilusion
bachata
ak
inventaron
taba
traba
aplaude
aclare
eugenia
preferiria
bajito
lisa
distinguir
alejate
sinceras
borraron
creerle
fio
descargo
##tistas
reducida
vulnerables
##ciente
acompanante
amarla
decepciona
formado
eze
hollywood
inventando
o0
pcia
viciconte
defendio
internado
suicidar
##lie
emocionalmente
oyendo
maricones
##para
avisaron
psicologicamente
correctas
grafico
aparezco
burger
paulina
canelo
liz
twitts
aka
escribiste
gaseosa
##uga
maite
vivirlo
convenio
venceremos
afecte
cuauhtemoc
moni
porquerias
habitos
atreves
franquismo
vacunas
llenaron
solis
revolucionarios
desacuerdo
nombrado
recurrir
mensuales
planear
guayabo
chupen
aclara
tributaria
##ding
cascos
miller
razonamiento
bebee
mantenido
gp
##lor
polonia
biografia
fallecimiento
pediste
##ibles
##ianos
juani
dedicate
frijoles
pagaba
garcha
tato
utilizado
fallecido
##sor
dnd
andaluces
cene
terminaba
trip
emprendimiento
calcetines
flacos
plataformas
transmiten
qq
##tral
cra
oriental
oyee
ensename
establecer
imitar
regia
cuevas
popularidad
ayudaron
perderse
sucias
imprimir
##ec
lao
finalizar
jodeme
especialidad
vigilancia
##stia
arce
peras
apretar
boliviano
intolerante
conocerla
magallanes
##its
cachos
chocolatada
gps
simpatia
olivereta
odios
tec
variedad
unaa
pokemones
cinica
burlas
pedian
gs
mirror
creian
agredir
groserias
echarme
mnn
##ming
seguiras
aplicaciones
identificado
juveniles
puntero
##uito
##tipo
regresiva
anuncian
sabre
siniestro
recepcion
##ulante
##torias
apps
idem
keylor
basada
nacionalistas
quebro
##quista
financiamiento
cito
jodaa
decidimos
presionar
artificiales
##ai
##ws
trozo
##taba
##rce
##cillo
organiza
mars
photoshop
apesar
crearon
asia
podio
poto
andaluz
costanera
demostracion
zinos
severo
rezando
guerrera
caigas
replica
espina
ayudenme
americas
cazar
equivocados
auditorio
##mol
pelar
elegidos
garca
barreras
gratitud
democraticos
cereal
estrenar
tiraste
recta
sis
##zados
estupenda
acepten
chocotorta
inmunda
nude
tania
tenerle
arrastrado
sociedades
##sin
##ph
esaa
rs
cogio
creativo
cucarachas
malu
papaa
saldremos
##ificando
diamante
regalarme
recomendar
faltara
##rama
genocidas
monopolio
logras
resfriado
salgado
contestarle
terminaste
imaginando
divinas
conosco
entrenamientos
arreglando
lopez0
encender
planteamiento
##iales
air
frutilla
##duzca
viendolo
payasa
acusan
bocho
lloren
##are
mean
sumale
doctores
eurocopa
tropical
meando
concejales
ab
##rria
santana
horrores
##iero
terrenos
rinon
mirarlo
chango
##ijo
pluma
autorizacion
huyendo
dial
alario
homofobia
mbappe
##ison
nieta
solteria
horizonte
maricona
registra
existido
pingo
friki
fortnite
madrugadas
clavado
rae
concejo
olimpica
suceden
encarar
instancia
##ecio
docena
riquisima
escanos
mapuche
bronce
bucle
ipad
illo
dejaras
mido
boludeando
critique
impresiona
votas
pampa
##zuelo
cesped
##ciado
##urt
operador
paracaidas
armario
matt
confirmen
cagao
supiste
jm
hoyos
demuestren
##cuta
##bada
coto
espantoso
puterio
##sca
movio
##esto
dalas
nombramiento
lavadora
rne
entidades
eligiendo
porras
aristemo
##back
rematar
here
##ik
aguita
sacaran
relajate
grafica
vivamos
fifi
gm
perdonan
##grafico
pink
preocupate
turra
acuerdense
##ngas
ceremonia
esposito
ian
disparate
quejen
rolo
tarro
muestren
paez
equivalente
nu
##ndos
violando
continuan
charco
bancan
tamara
tiramos
##chez
organo
trofeo
mueble
noelia
encantar
somo
chori
pensemos
visito
licuado
peronchos
zumba
imaginen
tuitea
expresarse
doscientos
gustes
amazonas
contara
if
llevaban
dorados
ondaa
##elos
consumen
redonda
contestarme
pobrecitos
enviando
falles
##omo
unirse
inscripcion
promueve
vidrios
coutinho
rotas
##torios
vigo
extension
eliminados
reprimir
##cena
vinimos
parientes
acv
##uelo
confundida
lesbianas
resumenes
veros
sugar
huelen
narcotraficantes
ampliar
amables
palomas
dejarle
aurora
santrich
conservar
republicano
entregas
seno
frioo
asustada
individuos
presentarse
##ace
guada
grana
corra
metidos
##mania
bancada
rosada
pepino
##cker
contarme
humillacion
jodete
##pie
callejeros
dificultad
arman
chipa
conseguirlo
garay
motores
cuerdas
hormonas
toc
velasco
elisa
descubre
##nidad
comics
riquezas
##gol
##ogia
superacion
plantea
porros
enamorarte
pudieras
emilia
recomendado
fr
millo
mvp
agotado
involucrados
##ball
vladimir
arre
cientifica
aumentando
ganada
bocina
tapas
ganemos
right
bielsa
mejiji
acordando
goku
protegen
ros
tomarte
##ducido
perdamos
##inada
dinosaurio
superando
##line
##udado
desicion
##v0
cantv
dramatica
fidelidad
requieren
generalizar
voos
gesell
muller
solitos
toneladas
mataria
religiosos
orar
presume
sandia
arenas
pizzi
##az
nac
apoyaron
tocayo
hh
moja
sabrina
diabla
apoyemos
seminario
##lados
bebito
alcoholico
andabas
cheta
mananaa
fpv
agos
bau
##chitos
cachete
decepcionada
frustrante
cualidades
##fla
shot
describe
manifiesta
carcajadas
simeone
deli
sapos
##pados
juguemos
##puesta
narcotraficante
sensato
inhumano
##stro
cosquillas
marx
criterios
camas
##tlan
baratas
colita
##cciones
pensarte
padilla
quebrada
##eses
##mitas
gestionar
lazo
ingenuo
##etes
champagne
naranjas
##reta
tomemos
##oma
altar
##ef
quieta
portenos
tongo
franquista
mirta
preg
aaron
balde
pararme
##uar
arrogancia
vee
virginia
##girl
esponja
estadista
##bola
desviar
musulmanes
creias
cooperante
iron
adicional
negativos
##fos
traidora
desconoce
hundir
deriva
cubo
##mez
convoca
guapisimo
mecanismo
uefa
conocernos
remar
##chihi
##iados
xavi
asesinaron
arabes
guanajuato
feto
reportes
##itada
valdez
irlanda
canten
##otas
##rable
##ski
prestigio
##cate
##inando
##ken
guri
comprare
niebla
spiderman
##rian
cobren
amaria
jazz
##pec
pensaran
caemos
garcia0
president
sospecha
tirados
besis
mandados
volverse
monstruos
##diera
haganlo
nanana
##etos
celo
bryan
pantoja
noticieros
atlanta
casualmente
transferencia
contestando
perfect
fueros
religiones
pk
mostaza
##sista
filosofo
##usion
despertaron
escenarios
problematica
uvas
tibio
mdq
##rol
estallo
levantamos
cuervos
guata
ganaran
controlado
vainilla
pollos
cajeros
##uce
rolas
atendio
bangtan
##ww
rayas
andale
fundamentales
carinoso
ayudaa
colorada
comparti
guino
unam
envien
libera
fuesen
gifs
paisano
piojo
arcoiris
##grafica
movie
cerebral
calmarno
##cendio
refresco
##arta
operadores
##yos
arepas
ovejas
twitteros
pensaban
pantallas
alfonsin
pascuas
tumbar
##cel
parecemos
##tima
guede
##dl
ataco
merezca
##iba
##ollo
land
estatales
sancionar
expliquen
calificacion
hihirba
oliva
llamaria
10
prime
mcdonald
##trica
nl
chicharron
cuerpazo
detienen
fbi
davis
montones
##aja
##ientes
preguntarte
dp
##bona
##ctiva
referencias
afectando
##dias
ostias
analista
arbolito
##tores
##riado
fundamentos
rango
guardan
reputacion
futuras
poroto
traerme
respiracion
tanda
promocionar
ordenado
fu
marron
inmunidad
insegura
der
gatas
blusa
perjudica
tibia
##trico
fotito
invitarme
cuatrimestre
mencione
##iles
##ries
##ceo
franja
pedofilos
valdra
viable
##less
hazard
##gano
pondran
britney
pronuncia
volviera
piolas
bajarme
coincide
jubilado
mt
corran
aguantarme
altera
cerramos
cri
siganme
finalista
chic
cari
##rman
debieran
##ciende
sujetos
cajeta
fortalece
provoco
##bla
balazos
##enas
cobras
mencionado
tra
arabia
##quina
mv
observacion
dinamo
punk
turro
manuela
avisenle
solucionado
##alo
warriors
experimento
##yas
asombra
maja
puchos
precisa
feeling
enferme
migrante
accionar
culpo
disfrutamos
acompanando
##rilla
rajar
atienda
decidieron
picha
juanma
lose
caramba
instalacion
disparar
##queno
ignorando
butters
pudra
justifican
##ette
polvora
remis
say
##oc
maipu
tengoo
##bras
comprarse
wait
##l0
##pon
retirarse
fenix
##antes
west
durisimo
cifuentes
rias
borran
historicos
retroceder
expediente
chabona
##viera
milito
transformar
practicando
girls
escrupulos
viviria
pintando
eficaz
challenge
avengers
bardean
rodar
bastaa
externo
um
graduados
rindas
pongale
ugh
sena
##too
johnny
pensionados
disfrazados
discuto
ahogado
debito
##rosa
pensabas
mansa
##pers
##sada
abrazando
pulmones
etiquetas
retroceso
pereyra
denuncie
desaparezca
nata
realizando
querais
##ville
consigues
objetos
financiar
torero
hajaja
papo
admite
nocturna
jodia
paleta
breaking
temperaturas
orale
infelices
sugerencias
mamu
hard
competitivo
posada
reduce
pymes
iso
##ifican
nomino
moreira
##die
adorno
coje
fastidia
##amo
empleada
andina
##dge
piscis
barcos
creces
conservador
gastes
point
villegas
periodicos
feminazis
pss
sospecho
montoya
ejecucion
putada
##osos
cese
vet
mamadera
consenso
estela
solaa
cansare
parodia
repaso
dvd
recibira
sobras
poemas
callao
ceci
metimos
tiron
##rines
amenazar
empezas
gaviota
vcf
wilson
observa
festejamos
sonries
emision
exigiendo
pajaritos
alejado
gritaba
peatones
loraa
quitarse
suenas
cadera
apoyos
esperate
separatistas
roy
gea
lord
##burgo
rajo
brujeria
mineria
mojar
dim
##teria
genetica
minimos
agricultura
tatuo
contradiccion
romperle
atrapa
jota
agradecerle
##ables
desgraciada
xo
amerita
tmbn
obvioo
guardando
afano
vistos
dormirse
escolares
costara
talentos
##dades
tsunami
presentaciones
tilde
##litas
brillan
combi
bay
saavedra
intacta
today
wha
arrancan
calorias
donacion
sudar
alentando
costas
vereis
cabecita
nacionalista
lolla
##oon
platicas
pasao
##itud
##rne
uses
arquitectura
faltes
ate
alejar
esther
##chehe
##ardo
##llan
aajaja
destruida
legislatura
levantaron
aayy
asumo
pasiones
granito
sacame
subnormales
contabilidad
claaro
##ise
navarra
asignatura
pareciendo
ministerios
mandarlo
amarlo
escuches
cafes
cuidarte
marques
pecas
cogi
sacarlos
##taria
infiltrados
##ile
aparezcan
noruega
##bien
##mando
cojan
patente
desubicado
mimi
##raa
cera
contarles
bato
ofrecieron
rosalia
septimo
jurar
##uri
llevaran
apologia
aye
opuesto
dorada
mencionas
reverendo
conservadores
agrega
mosquera
##mil
billones
esmad
chow
last
##brito
##lona
ensenarle
##razo
adele
vila
##yando
cerebros
##nch
grandee
trapos
exilio
chispa
bodas
expliquenme
flipas
motel
olga
elenco
medialunas
semejantes
##naa
##iacion
identificada
rinda
##didos
aburrir
descontrol
incorrecto
dai
solucionan
empeze
comentado
mapuches
solucione
sensibles
##ping
##ness
##rm
chaharo
republicanos
lopetegui
levantada
##pina
pegaba
cope
sms
dibujitos
hehert
enterarse
grata
astros
abrazada
traera
vergaa
justice
trucha
##com
proponen
externa
integrante
showmatch
parlante
aupa
belu
##mida
desgaste
huye
proceder
semilla
fuman
panuelos
##tengo
pl
holi
calzon
dominar
mostre
##fique
peatonal
planchar
rosado
##fu
proyeccion
convocado
boludas
gossip
leganes
sacarla
quizo
negativas
shampoo
sg
despide
buenisimos
zorras
##este
pll
rifa
heterosexual
messenger
madrugo
secuestrado
papis
lauren
persiguen
romi
licenciado
agonia
dallas
mojo
ocupados
##posicion
##cra
always
desinformacion
comodos
sab
subirse
##inan
cruzando
retro
trenzas
alucinante
##yes
fo
cuela
evidencias
pode
##cidas
##oe
preguntados
bailamos
consigna
confesion
pensandolo
votaste
carrete
instantes
jugaste
##here
jja
peguen
##nor
solido
encontrando
protegido
imaginarme
pedorro
decepcionante
capitales
cafeteria
farmacias
anthony
invitando
asustan
tasas
derrotar
durazno
informarse
golpeo
##uso
cuidados
##cis
maga
critiquen
llegaras
##ox
divinos
tablas
brasilenos
enteran
salarial
n°
##tez
seguida
##hs
##near
ws
tip
comparando
desgobierno
resuelven
gaviria
vendes
tradiciones
puteria
nojo
mula
cochino
thor
##rg
descarada
tube
entregando
##ele
##uras
devuelvo
dominicanos
reemplazar
hormiguero
usarla
molestias
miaa
regresas
emergencias
pib
semillas
reforzar
arrogante
luifa
apareciste
consentida
##hito
##ultura
##ulando
mundoo
diass
cloaca
suspendio
apurate
merengue
fuertemente
velazquez
tomarlo
negri
##dria
perversa
mirala
inigualable
pusiera
bodega
gn
sudadera
tatuado
##tizacion
levantaba
latorre
##o0
##lez
mamerto
##dt
jimin
almacen
ask
visite
##ciar
emprendedores
atletas
##bert
srs
indigno
dispara
forzar
matarlos
gus
balanza
reflexiones
arcangel
cometen
plagio
erro
uruguaya
##utas
joyas
altisimo
chauu
chocar
vane
durango
caricia
ospina
independentismo
rivero
tomaria
hondo
pensaria
lesionados
amenazan
llano
danan
tauro
##hehe
negligencia
rollos
todoss
morras
pelee
electricas
humala
aguacero
valiosa
capos
lloramos
usurpador
pediria
nqv
atendido
solicitudes
enchufados
compares
inbox
anduve
egipto
ucr
piojos
##rez
maes
pasoo
solidaria
##rato
decima
domino
##vir
multitud
##lini
bbc
kit
academica
asustar
mienta
edwin
celebre
estatura
mea
consentimiento
parido
ahrre
neurona
decenas
integracion
pnp
braian
castel
identifico
slp
cardio
avena
canaria
encontraste
trayecto
encontrarnos
##gir
urgentemente
vic
orquesta
beibi
chinita
respondas
ajedrez
civica
pasarse
entendimiento
coimas
hahatianos
direction
prat
preguntame
##yu
lampara
rana
rulos
furioso
##olo
homosexualidad
##rizo
sintomas
libreria
dudarlo
imperdible
pia
traductor
ensenarme
violo
mute
dengue
cabezon
esperandote
tag
sirena
faltaban
##grama
cavani
dsps
mexicanas
lastimado
##iner
equivocan
ford
patito
conseguimos
falacia
fenomenal
porquee
mencionan
solteros
suponia
##har
##plique
palco
ajax
fallido
calza
repartiendo
afiliados
voluntario
chupas
obsesionada
antofagasta
indepes
##pin
televen
entrara
pololo
desesperante
mecanica
anulado
##erva
bancando
bobadas
esclava
felicitas
caeria
side
windows
constituyentes
estrada
figurar
erradicar
tristezas
negociaciones
##poner
deprimida
##ctor
herir
falopa
destruyeron
pta
plagas
narracion
vegano
tecnicamente
obvia
individuales
morite
gede
##verso
gua
amenazando
cagaba
##brio
##sivos
informados
##oca
joo
rep
abandonados
sufra
soga
bruce
##rey
##dz
trino
lucifer
consola
incompetencia
senda
##lea
educados
inexistente
pintada
perdicion
marcho
promociones
##bis
oliver
saquear
kroos
torra
carmona
ofreciendo
suspenden
dedicas
insuficiente
##ncio
adan
prian
vivian
##ceta
odioso
internas
anahi
##fin
sueltan
##ndote
conozcas
##imiento
hablais
tapon
contener
calana
cruzan
violada
sobrevalorado
zero
devolvio
legion
cuidas
archivos
favorecer
liado
malhumor
operan
rededor
##ratas
lunar
##egados
regreses
otorga
dolorosa
pabellon
bebita
prostitucion
erario
tnt
cd0
abandone
vivirla
auditoria
cortinas
recoge
almenos
suspenso
##azos
xenofobia
naruto
fujimorismo
##aha
consumiendo
subas
debian
despejarme
pulpo
porcion
oceano
##tologo
castiga
legislar
##ders
clinicas
civico
jale
girona
lazos
digitales
enterando
encontrara
remontar
grosa
¬¬
##tter
especulacion
hablandole
##uz
carol
ilumine
rendirse
hamilton
stan
empezara
flamengo
sd
##neta
cabro
##sy
adolfo
jerez
electores
marxista
##dear
bonadio
patrulla
##rque
naranjo
inmigracion
n°0
##yera
decepciono
ramas
panes
flashehe
##guas
generos
##rie
mimo
baron
creyente
toronto
descaradamente
donas
cuidarme
cremas
gta
boo
anses
eua
conociste
reirte
austeridad
violin
responderle
elefantes
policiales
genes
fla
##grafo
fritos
consultorio
##teca
chimbo
anote
preciosos
vatos
##ecido
nazca
tina
semanal
##nque
anna
golazoo
tamb
dimision
contencion
mejia
cruzamos
rehabilitacion
bancaria
pijas
parecidos
graciosos
veias
chabones
indigo
rentable
reconocio
bachiller
acuesta
steve
lomito
dejaja
nombran
asumio
bonilla
culturales
##tracion
au
compare
encuentros
acomodo
permisos
lluvioso
apruebe
lili
##non
servira
##llitas
##yl
barril
joderme
reinas
sn
aerolineas
besazo
censo
gd
guevo
insumos
flacas
rancio
animas
juntemos
monjas
boomerang
mery
espert
viviera
bm
recuerdes
fotocopias
gijon
comercios
merecida
inmaduro
salah
ct
llevarla
logistica
##pto
contraloria
##cidio
aceptable
aplaudiendo
ateo
##udio
teleton
bull
existian
manita
nacimos
abandonada
maquinaria
arrepentimiento
trueno
juntaron
click
##ev
##quear
##vita
artesanal
feel
enfrentamiento
ojeda
indignados
oportuno
quererse
retirado
##iaa
turbo
mdp
construido
granja
cigarrillos
asesinan
bajate
hablaria
subia
idioteces
patan
patagonia
insisten
bata
mayorias
metrobus
robin
buu
match
edomex
screen
bosch
pajas
aprieta
prometieron
circunstancia
enojarme
poker
serpiente
##media
proyectado
aberracion
mecanico
ingenio
actuen
encantadora
mudar
saludame
lios
##eres
drogadicto
flashe
suicide
inglesa
##oza
secuencia
##americana
voltear
inundaciones
animacion
roa
##cidos
##vich
pac
pastrana
##manos
muros
culiau
ao
criaturas
hayamos
sweet
##idez
##monte
lok
gomas
sergi
pisado
inclusivo
errejon
microondas
fatima
anarquia
sustento
analiza
confiando
macrismo
gemidos
cortito
disfrutas
influye
pegados
##nido
brillantes
##vs
serr
titulado
##imas
captan
lidia
##versa
errado
cargada
##p0
##rge
imaginado
danny
summer
periodistica
prometer
eme
paraba
tratare
haciendote
bill
preguntamos
moje
ofi
pensais
fabio
copete
fotografias
aspirar
boicot
mordio
marito
repetido
votemos
##bbie
##lmente
duerman
escribirte
agarrado
##rris
##zen
##dole
varas
grua
separe
lescano
luchador
osito
pote
alaves
##mbas
bolsita
rapidito
crucero
fumarme
mossos
dad
latas
cash
investigando
calefaccion
olimpo
aeropuertos
tuvieramos
masomenos
oie
saludes
subtitulos
asfalto
dilo
##brada
casilla
definen
indico
greys
evito
kieres
##ome
patitas
stalin
##oli
avisado
lastime
totalidad
visten
##neos
demandar
lalo
robarte
status
barrer
chatarra
productividad
zanahoria
##vor
dembele
prestamos
corres
demaciado
##rch
lg
panchos
active
##siones
consumidores
informativo
enganos
##indo
##uando
##erias
ordene
invente
celso
catastrofe
nc
genialidad
mamasita
respetado
mandaria
buscara
organizo
nde
amarme
nuclear
poster
tarima
##ificada
republicana
##bria
disfrutemos
breves
acelera
##ters
colau
##version
escondida
modales
ayudeme
sequia
ju
compraria
ganaria
support
##rinos
ppd
permanencia
rendi
aplicando
subimos
obregon
radios
cometiendo
hechar
irrelevante
##upa
creamos
engendro
misogino
desconocimiento
estadounidense
querria
ideologica
musculos
recuperado
sumado
##nho
metropolitano
saltas
hayy
jaguares
##ectivo
z0
llevais
lobby
carinosa
llamaban
chingos
administrativo
cele
entretenimiento
defiendan
##ward
olimpiadas
bal
comprometidos
destinado
confiado
ismael
##win
##gne
jugaria
##tias
ruggero
extranare
loka
posterior
bana
##rer
demencia
bowl
ciclos
cupos
##tual
experimentar
necesitados
defensivo
ruth
personitas
ganso
ahuevo
hagais
spot
filial
joao
quererlo
posee
##quio
##nc
remo
anal
escupir
##daje
simios
grindr
##lls
tempo
electricos
coherentes
boli
futbolistico
moraleja
fail
retweet
##udar
bloqueando
quique
##ani
flecha
flipa
##jejer
dtb
abrazarla
dudando
investigado
feriados
valee
mole
silencios
ejem
italiana
perderlo
woman
jamaica
abiertamente
destrozado
sen
providencia
referentes
##arlo
##llita
dedicarle
coloco
negocia
reviso
nuncaa
##vino
trajes
septima
entenderan
patrones
calculos
respetando
##bor
optica
zavala
cocido
provocando
##pongo
##tean
caraduras
ambulantes
tweetdeck
engorda
informatica
lauti
##tein
done
ridiculez
agotador
sensacional
perseverancia
rua
##rc
creanme
protestan
majul
adam
fobia
##yi
benedetti
bruselas
delinquir
magistral
tudo
ensayos
inf
danado
crazy
presiones
##cede
##umo
detenga
rima
parranda
##udi
extranaria
oohh
tradicionales
vocero
trataron
sindical
avalos
hablabas
suponer
enganchar
neo
cacao
luismi
disfrazar
silvio
verdura
##ania
mind
caminata
pican
comenzado
trucos
verbal
parlamentaria
wue
conlleva
##rza
dijeran
##lk
rojas0
apoyare
pipas
alquilar
frontal
senos
albanil
busquedas
##tl
##ribo
br
villar
prudencia
##izas
fijas
cansaron
caballito
diooss
lectora
clasifica
inconstitucional
hdmp
payasada
aprendiste
cohetes
##juela
vezz
insuperable
sb
ingrid
invade
cachorro
coreo
sentiste
abrazado
bang
bicentenario
enfermas
federales
entristece
secreta
okno
uta
##ecientos
infernal
obstaculo
tiburones
##cendente
boyaca
prorroga
facultades
administrar
querras
snow
sanguche
aereo
alumbrado
gilipollez
ecu
jojo
gemela
##doro
seaa
##trada
melina
preocuparte
fito
intocable
reconstruccion
crespo
##lida
telenovela
veer
everton
##activo
panamenos
einstein
anteriormente
prospero
caseros
moncloa
bida
muelas
enchufe
imaginais
##ciando
##ctura
entierro
##jua
evangelio
sonara
end
porfin
pepsi
##cientos
cumplieron
mayuscula
tutorial
matarte
satisfecho
tributo
lease
##cat
distancias
gen
##cien
estudiantil
iniciamos
abandonan
defendido
##ika
##sur
hacerr
hablaran
meet
objetiva
atrapado
contados
prohibicion
pintarme
invitaciones
tampico
tijera
isaac
intuicion
recibes
salchicha
acostumbra
solcito
existiendo
muni
apunte
ganitas
##gaba
suju
##miendo
sopla
especies
##hina
beatles
disenos
alegrarme
srta
ravioles
carreno
farias
##ricas
veterinario
woo
ingenuos
pinata
chetos
handball
calladitos
uba
malparidos
lunares
##mps
##puso
##biendo
secos
agotada
reciban
mostraron
##uelta
descarados
consecutivo
ropero
sonidos
visible
##ury
harmony
ray
##uel
nn
utopia
##ann
##zaba
##stico
abortos
wti
##tiera
ahijado
delfina
futsal
gama
histerico
perjudicar
##nder
sueltes
cantidades
morning
sacada
bajamos
gabo
recoleta
navidena
bra
xi
matador
brindis
enviaron
definido
bordo
propina
sorprenda
utilidad
despedirme
inodoro
delicada
##ajaja
desearle
young
jugadorazo
##rieron
cuidao
du
irreal
vrg
##tud
##campeon
##ais
rebano
alexander
acuario
only
abusar
aceptamos
##tle
adelgazar
enciende
swift
##urado
sacrificios
pedofilo
anular
interminable
romo
vinculo
sicarios
criticado
majestad
##rren
narcoterroristas
paisajes
corridas
malandro
panadero
reservado
godinez
pemex
severa
acompanarme
obesidad
asombro
adora
mataste
araujo
ayudarnos
denuevo
##yn
wns
charlotte
iniciativas
imperdonable
cardozo
pogba
queramos
sostenible
cagona
votaran
disfrazada
concursos
arrimadas
groseria
artist
huevada
mareo
residente
rubi
elsa
gurisas
popo
hertz
cauca
##eri
##tp
arquitecto
grs
pollas
##ijas
pintaba
planetas
corina
maman
peine
gremios
colicos
martillo
##rcha
propuso
moretones
##bil
generado
ensuciar
sanos
gentee
##quenos
anunciado
lgbt
prohibida
ahoraa
ilusos
aprobada
##table
##lones
irregularidades
acercarse
egoistas
pecar
libras
##cara
cachetada
coordinacion
hip
mino
gloriosa
##pando
etiquetar
stark
hc
imparable
larry
##llen
##lva
legislacion
besan
ergo
brad
asadito
##k0
macias
ombe
prometiste
jodita
contratado
ladra
amabilidad
sobro
martino
movido
graba
lasso
gases
lavan
##mido
entrevistar
bollo
exigente
round
fujimoristas
camioneros
nigeria
pochoclos
suspendieron
ignoren
propuesto
acostumbrando
##juu
##ihi
huerta
malvado
##sjaja
##eer
##nge
book
morira
equivocaste
simulacro
ibiza
##xis
contrata
putito
body
compres
mansion
cancelaron
impulsar
agresividad
monito
fabuloso
escritura
sobredosis
condones
preguntenle
descontento
db
espanyol
##ene
quilombos
absurdas
mudanza
avecina
permito
##pis
suenes
cancelado
migrana
iniciando
##rva
dea
led
uniformes
dedicada
##uer
##rtar
cosplay
espinosa
##oles
equipaje
fugaz
tratados
##rojo
##mentar
juzgan
aconsejo
##jista
##ntra
refran
##itaa
hippie
mercadona
testamento
merli
morada
tirame
encontrados
entenderas
koala
solidarios
tratamos
##hihi
artificial
adoctrinamiento
demoro
##udas
cabezazo
todito
evadir
nam
considere
sencillez
tiento
redondos
##eos
##ogo
diversos
resumir
xuxa
espectadores
apoyandote
darian
magistrado
##cro
##nti
submarino
##ult
temblo
##egado
shaky
##dri
llamarle
insurgentes
eps
leona
obstante
graciela
influencias
descuido
planos
posturas
adivinar
mirad
espectaculares
colgando
desvelo
entendera
murray
rl
##cre
truchos
bosques
ln
mataba
anestesia
regueton
saludito
comunal
qatar
##maa
abusan
##vieron
bf
##thihi
licencias
canelones
ring
equivocarse
pasarle
check
pelotazo
vivieron
votara
##piro
preparan
##tri
apuro
conspiracion
creiste
##dientes
ruinas
encajar
estima
financiacion
##ojo
encaja
samper
revistas
desafortunadamente
asuma
nero
sir
explicarte
vagon
cruzada
brecha
delegado
derbi
invertido
estandar
argumentar
pactos
establece
joyita
desodorante
tngo
##zy
cepillo
comprarte
gurises
heteros
birrita
babosa
jugaran
convencio
antonella
aparecido
empatan
marruecos
psicologica
romanos
jennifer
rguez
robados
##minar
buff
##sm
##guin
##chando
bajarle
soul
hero
##renas
millas
dinamarca
##lv
quisieramos
meno
teamo
caricatura
##aban
##pana
tipejo
ligero
cruzados
verguenzas
irracional
legitimidad
abonos
pertenezco
asistentes
existira
patriotismo
picky
##gana
##racha
ignores
##ridos
bragas
diversas
castellon
roomie
yuca
prometen
nadia
formando
inconveniente
pinocho
suenoo
proverbios
##rdi
nayar
baches
aerea
##mizar
camperas
##ioso
especificamente
relevo
exigencia
intentamos
feroz
plumas
corria
intimo
amara
fifth
fotitos
chaves
enterada
jarra
pn
fluye
regio
##zal
ames
##mados
separan
reconozca
empeza
guardas
excesos
patrias
##raca
tati
adaptacion
finaliza
boletin
transmitiendo
leva
institucionalidad
circula
cagues
##cistas
name
minitas
tatiana
soberana
curiosa
machito
bailarina
pretextos
imposicion
racional
ryan
guante
informen
miedito
corrijo
ailen
daale
##mpi
quitarte
estafadores
##mentacion
francamente
vanessa
cucharita
aries
conductora
felizmente
planeo
provocado
tuerto
bose
russo
jb
soundtrack
vm
##ago
borrando
##ficado
confundan
convencion
att
odiado
recarga
pintadas
##mpe
murga
##fobia
relatos
pla
pesan
grato
oficialismo
odiamos
limpios
creada
probarlo
vecinas
desamor
aulas
chiringuito
##ecto
tazas
##ucha
##doo
finalistas
coordinador
sumas
amistosos
panameno
##moo
sims
constantes
rambla
street
celestial
amigui
gal
first
welcome
bardeando
jaz
complemento
comunion
superficial
pujol
##pta
provida
bowie
##sma
barquisimeto
exquisito
ferias
sonamos
##nger
##redo
chingas
brayan
carnes
bolivares
campus
perdere
sho
##ist
laberinto
impunes
ph
software
liberalismo
nenita
antiguas
panal
descerebrados
revolucionaria
caldas
jalar
despejado
dom
jodidamente
asistencias
leales
##lao
candelaria
tragando
roldan
histeria
pareceria
geminis
##zita
calificar
recuperando
fundo
obispo
cardiaco
denunciando
wi
sorprendida
punetas
magic
relator
alboran
honorables
subiste
voyy
##tesis
##zcan
adoroo
molesten
talentoso
##curo
pronunciar
dua
incompetentes
calorcito
kiss
##pido
##key
salvaron
abstinencia
unicornio
visibilidad
apura
##ep
##zoo
lesiono
aguja
cod
actrices
pasate
inicie
petardo
##titud
##dados
encapuchados
espejos
ez
ganarlo
walmart
peliculon
rosita
tandil
iara
##erado
morfi
quepa
funcionaria
saludando
acomoda
sorda
##orte
neri
realice
hablenme
##jismo
##enn
##lines
elija
hebe
deportivas
emanuel
talones
limones
##fc
divertirse
retrasada
pezones
indican
indulto
solto
aves
residentes
cereales
choclo
festivales
ninera
inventen
necios
juanito
##onia
yaya
gusano
segovia
##dicacion
porqe
##pasa
aprueban
dabas
trabas
menti
hize
monster
sobrio
celebrarlo
farra
gary
octava
gio
six
cgt
anderson
##unta
dilma
##iche
gamer
desahogarme
aluminio
##linas
fiasco
usada
##iega
##leando
aumentaron
modulo
destaca
sename
##cle
golosinas
escucharme
psc
ensenanzas
supervivencia
##nadas
ocupe
soportan
paraisos
lograste
mor
empuja
wao
presentador
aparicion
radica
arden
disminuir
##nzo
bkn
derrame
pelu
pnv
cancelan
##lana
sacrificar
preguntele
descubrimiento
##dice
enojas
manco
musculo
tripas
encargada
afectadas
buscarle
legrand
soleado
##riza
colera
extremadura
oli
pet
atajo
paradero
aranas
saludarme
##rdas
emprender
asin
luchado
##clo
ahorrando
ahorra
##mila
bajarse
indecente
acontecimientos
localidad
corruptas
recorte
grandisima
revelacion
algodon
derrotado
tacho
busquets
quejarte
##yer
atraco
croquetas
postres
grand
identifica
suenen
hipotesis
ocurriendo
migajas
inicios
podemitas
##pra
cuca
seguid
bajones
frasco
infolibre
##ndy
hormigas
arda
meteria
negando
perfumes
pinchi
leerme
aparente
estancia
pidiendole
relajada
conecto
acostumbrarme
crossfit
##lleros
##tran
esca
genesis
##uido
gar
determinacion
##uente
quitara
grr
rubias
ahree
caracteriza
consideras
layun
mlb
piquete
lavagna
previsto
sudando
garras
##lles
quiroga
dirigen
jsjaja
decidan
sentencias
##fita
cines
##forme
##viste
atenas
senas
activado
cosito
neutral
##kita
acertada
manipulador
traicionar
matame
vistes
##cadas
##tarse
almiron
##adora
desconocida
siguieron
##hm
dividido
ondas
##ssa
##turas
contribuir
##sus
consiente
supieron
yolanda
preciado
intenten
stone
villanueva
alumna
obelisco
vinagre
##gante
conalep
dramatico
confies
garavano
padrastro
sabores
ratico
##time
very
resuelva
inestable
bacca
llevarle
##dom
##jico
reune
amore
olvera
bravos
ceviche
##cable
refri
fulano
recoleccion
naah
vinicius
##uyo
dog
copo
##uero
realizada
bailaba
llenen
dirigida
##tizado
ballena
honrado
polera
vergonzosa
simbolos
enteren
##billo
mojon
nobleza
compensar
##irme
iztapalapa
peleen
hembra
isaias
pelaez
##fis
sim
velasquez
energetica
##play
coyoacan
brexit
merlo
##macion
nominada
despegar
ass
vestirse
perry
pibitos
rasca
abres
ubicate
combustibles
creeria
efectividad
registrado
acera
terminare
ayudanos
conferencias
luchadora
doblaje
oasis
desconocer
doblar
necesitado
##reno
iker
lastimo
fco
pelan
perdera
subire
uma
recambio
arrepenti
retrasados
cuestiona
futbolero
weyes
adelanta
##cacion
preferencias
##tines
cuatri
minorias
reporto
erre
##nja
unio
aprendieron
fanb
agg
##ecia
estuvieramos
jajaka
bloquearon
responderme
##ream
##tao
tiempito
country
licey
regresando
luke
##cf
averguenza
nominados
##visor
pelando
sendero
joaco
drogada
vtv
altamente
manifestarse
olvidarlo
perrear
##vimos
craneo
marchan
vendia
fuero
bell
infeccion
valenciano
insensible
enganen
huelo
lavarse
contratan
encontrarlo
capitalistas
entendible
mejoor
vestirme
##rson
indiscutible
dependen
dn
##ntas
detuvo
poquitos
cardenal
programado
comprendi
congestion
teni
##terapia
caviar
colocan
chano
transmisiones
##rzo
cometa
##pata
##pla
apure
tematica
gritarle
##rreo
##elle
secuestrados
agoney
muerda
lectores
malla
cicatriz
desiciones
hill
consecuente
##ctico
dejeme
die
paraguaya
##gin
controlan
repasar
chihi
virginidad
joderr
dediquen
despertarte
lucir
recordarlo
comprados
fascinante
camaa
##ence
trompeta
pedacitos
macro
marcelino
chiquillos
dimitir
argento
machin
terminemos
virgenes
camionero
conmigoo
curvas
tregua
zasca
##allo
comparta
cordon
acordarse
roles
##visa
sumamos
cheddar
sec
vamooss
numeritos
tecla
profundas
entraste
jugarlo
alegres
pensalo
jaramillo
selectiva
atraer
##rimo
obligatoria
secret
tambn
asesoria
agrupacion
spa
titeres
##his
fueguitos
juzgue
##tamente
dificilmente
##miso
update
trolo
##wan
cabildo
lym
listado
toxicos
geo
ahno
abrazarlos
mogolicos
exorcista
ubicado
apareciendo
siniestra
ejerce
conectada
luchamos
sociologia
idk
inminente
instancias
soraya
sentiria
peques
esse
aplicado
poniendome
vividores
##rella
##rrear
apoyarte
madonna
floyd
sorprenderme
guardada
cuelgan
revela
desestabilizar
lastiman
perdonado
##gura
##randa
jaque
##villa
mou
shore
dao
bombona
##teada
desarrollado
infinity
lm
extranandote
##beria
rangel
wikipedia
saliva
periodistico
degenerado
dirias
patri
olivera
generosidad
intensamente
##anda
##real
enteramos
frazadas
efectivos
cacique
miserias
funcionado
opinen
##ller
pulga
acevedo
villera
contrabando
destinos
esperarte
instrumentos
chocho
delfi
negado
boss
mandarina
prepararse
promos
##trado
##ick
cirujano
upa
humillar
prendas
guie
##sea
pasemos
recordarme
atl
mamacita
cosquin
superarlo
death
fresas
bandos
gastronomia
mineros
smart
fracasados
lrpm
xalapa
bora
conforman
##ceria
tonteras
griego
cantamos
escuchame
iluminacion
concentrarme
guns
nerviosos
quites
agora
eric
jenny
palitos
panqueque
##robar
estalle
occidental
lulu
razonar
alcala
jhon
dioo
low
##dacion
burlandose
cabezaa
rodeo
venezolanas
##cing
tokio
espectaculos
chu
musicas
mirandome
pitar
reta
estatus
wapp
negociando
omnibus
##jete
renacer
sil
turistico
consejero
huesca
##eth
girar
penalty
callen
lares
talentosa
cenas
tramposo
explicarlo
juzguen
caicedo
invierte
fica
saluditos
chamuyar
fonseca
alianzas
esquinas
##anera
##nir
momia
unirnos
talca
duki
prepararme
pagada
destrozar
##diente
##ducir
comparan
tapando
ambitos
viniera
ocio
plantear
chupala
pateo
casera
tolerante
##gusta
##kel
chiquitas
merecian
puerca
zac
extorsion
hps
##ectiva
ampliacion
marche
camaron
hambree
inviable
miraa
##ezca
maestre
bicicletas
botines
actualizado
alergica
iniciales
haganme
ricura
afines
compatriota
deciamos
comere
instalado
lupita
oct
poses
nadine
vendi
milo
##oh
fallecidos
gerencia
##rador
gustarme
dubai
desaparecieron
rakitic
joderia
entreguen
steven
grammy
acaa
pinga
cuerno
punos
irrespetuoso
von
olgascordero
nerd
tottenham
arreglarme
expone
##stan
ajja
hadas
zara
##ring
escalon
culturas
##quiera
##terna
utero
ceno
exquisita
ladrar
olmos
presentaron
aguantamos
maternidad
cuidense
nominacion
bolillo
adictos
admira
debiste
peleado
##lsa
medicacion
dormiste
propuse
amanda
prontito
##nomia
casualidades
clasifico
pass
playoffs
eibar
##cente
pitbull
politiqueria
sarten
aweonao
fallaste
antisocial
##vada
cobija
lost
aparecia
corazonn
jajaha
sasha
bancamos
participan
##ig
departamentos
respondieron
seguirlo
volverlo
desafios
friday
permanece
durado
mercurio
mf
tambienn
territorios
transformo
bona
ofendida
##ray
anciana
molan
yass
frenos
calz
tomarnos
viuda
rebeldia
amiguitas
vendras
##ndu
arreglarlo
cota
publiquen
weekend
reconocerlo
##utico
delata
fun
##curre
apariencias
##ock
aprendamos
inyeccion
##cante
staff
afectada
bbva
formosa
chulito
##guer
plumero
inseguro
##cies
orange
picando
sensatez
parta
platicando
heheder
ganaremos
jeva
reviento
##tinas
pueblito
suicidarme
##cus
aerolinea
alameda
goberno
naca
cadete
laptop
angelica
robada
##ecen
##wood
hablare
##ale
renato
apretado
apasiona
opresion
lanzan
##ceda
##risima
conductas
clasificado
estreso
borrego
##rir
banega
suero
##lizacion
pedas
torreon
fam
stock
##veda
inmensamente
libreto
##garte
suertee
juank
cantina
tantita
##ssia
##taron
estarlo
tanques
violado
desubicada
maybe
enfermarme
aislado
cruzarme
feminazi
ineficiencia
##uria
nieves
alcoholica
##ncias
chapar
##timo
sanitario
conversando
fijan
conectados
invadir
excepcional
agregado
chocan
ou
jubilaciones
fabra
celia
##ving
entes
deberan
menpet
dejalos
chape
tragico
##jal
visca
brownie
hiso
acostumbrar
goya
soltarte
##qe
##alta
aviles
castano
detestable
##rsa
doblada
dejaremos
pagarlo
pulido
##bino
supercopa
##ulan
videollamada
pudor
enterrar
##lete
bros
distraer
##cin
dora
iros
sepamos
quer
inventos
##ori
##egue
ratero
shoro
disparos
merced
diesel
##miza
mude
parlantes
temblores
##garay
##nsa
intentaron
hampa
harte
retorica
pusieran
no0
determinar
ysi
natal
ram
mafiosa
##teen
catalogo
mejilla
boto
mierrda
choripan
cubierto
year
fonsi
##reda
gareca
rastro
fumas
fabricio
ritual
vola
aburridas
hermandad
chabonn
cuartel
gorilas
escogido
nocion
rivadavia
encendido
colonias
encierro
titan
##uza
brandon
##dando
leyeron
probabilidades
vomitando
palmira
##pico
consentido
##uladores
contingencia
instalo
mourinho
##sp
talvi
##bios
teleserie
##rola
imputado
quemados
make
odiarte
sirvan
estereotipos
##radas
bendices
enchufado
##egro
##pres
custodia
##gt
explicarme
leyendas
pinos
chulada
tano
##gle
ardiendo
veiamos
perderia
mejoren
metropolitana
desaparecida
asesora
##nna
basurero
vuele
centavos
portate
desidia
reproduccion
##jja
##ric
inservible
papaya
##ierta
enamoraste
fallaron
aparatos
##mista
regulacion
wachas
caerme
firmeza
##ancia
##gador
atlantico
##kajaja
italianos
##vistas
recinto
##ciencia
gye
##caron
romanticas
nigga
lina
negacion
izquierdistas
tyc
ect
historicamente
clavarme
magicos
resulte
mendes
birthday
explotan
mode
vestiduras
comentas
ligue
agarrate
coreano
clasista
equivocacion
bendecirme
##bano
concreta
##sores
##onista
manjar
rapidez
tattoo
equivocar
velorio
desvio
puedoo
banito
friendzone
montt
represente
rumbear
##nao
tenedor
villas
jorgito
documentacion
nee
almorzando
esposas
##vive
perseguido
flota
vallarta
triples
choro
ush
oyo
elegida
lorca
abi
creerte
avisando
abrazados
dignas
protegidos
realistas
joer
##quee
creencia
caerse
atiendo
escualidos
hablale
aburrirme
provocacion
amy
salirr
##tituir
##gran
alone
jason
vigilante
dicaprio
ponerlos
paraguayos
##iu
festejos
mantenemos
obsesionado
##ant
precauciones
davila
miden
secar
asis
bel
ccp
cronicas
economistas
##america
##tumadre
agota
operativos
porteros
necaxa
sacaria
fiar
##bieron
state
toodos
##tarme
albacete
hop
tiende
##uales
##rones
actuado
puteo
##jiji
gozando
putean
apreciacion
webo
basan
##ibe
propones
refieren
##izarse
##gz
huevones
relajante
##guitas
##pcion
aceptando
farcsantos
choreo
alegras
calladita
prenden
abusadores
##tics
besando
calculadora
dortmund
pinilla
suelten
beach
voice
quejaba
devocion
dados
llorones
nora
incoherente
chorizos
##mision
indemnizacion
afip
ceguera
capturar
continuamos
arruine
digais
pandora
##dina
constitucionales
libero
##juan
quemen
fumado
machete
satelite
labia
portar
anotado
ahijada
inmadura
cambiarte
pub
smirnoff
confundo
##uita
enganas
##cr
sorprenderia
wasap
pineda
sicario
##pacion
exprese
cavs
homofobico
obtuvo
mudarme
##qtp
lleguemos
stereo
berrinche
investigan
##dino
recogiendo
lamentamos
mueves
tuco
il
veterinaria
ajustes
aprovechado
wisin
agh
##tendra
##popular
sacerdote
poneme
robas
##virtiendo
analistas
pbi
jerry
soss
demuestras
##buena
famosas
cambiarle
bardea
chavas
##dano
redactar
pelon
documentales
gallinero
##gina
encargue
##ptados
thalia
araucania
rex
branca
aporto
japoneses
resfriada
equivale
##f0
##ink
caderas
compartan
##mental
montando
abusador
##jeje
##rcida
##uche
burrada
olivia
chilaquiles
pitos
space
lucro
josue
llenado
cabras
partidario
fauna
duracion
dream
aser
gitana
escribeme
uuy
clandestino
aspiraciones
##unas
level
ensenas
disenador
bronceado
ju0
to0
bou
gregorio
obrera
continuamente
##df
naza
##turo
criar
##fp
##risa
##dais
##ulen
ignore
informada
lance
llegaremos
viendote
aji
bahihi
hirviendo
concretas
##sho
##bolas
kiere
democraticamente
kill
gastas
ruptura
comadre
paella
empieces
##mora
apostando
##americano
##inez
##iss
agro
ninja
##pare
feb
pasillos
rocky
fujimorista
contiene
revuelto
##uy
demuestro
opa
lakers
calentamiento
josefina
gusanos
inolvidables
burlando
estudien
costilla
yatra
despilfarro
hoguera
tenerlas
mozo
realizara
significan
barto
dandose
##ction
besoo
dirigiendo
palestino
bajeza
ideologico
opresor
mirarla
parlamentario
echarse
##cioso
lector
justifico
moriria
agoto
nochon
pudiese
casate
destitucion
##bran
rinden
esmalte
inseguridades
##aco
melissa
milenio
satan
##light
pastas
plenitud
terriblemente
caminan
chantas
restriccion
relativo
vih
##lf
sumarse
contralor
priista
quiniela
avanzada
enviamos
insignificante
##activa
gignac
pretty
usurpacion
##ponga
kardashihin
ross
bolivariano
##lares
eehh
jet
marie
carrizo
parioo
bombero
##gun
pg
##oni
aprobaron
esperarse
##bilizar
firmaron
jodieron
centavo
deme
devaluacion
##plo
jjoo
##uario
establecido
interpreta
recomendo
asociaciones
torturas
##ocha
rostros
higiene
##u0
genere
restaurant
cervantes
purga
##mierda
cutre
sic
bastardo
muchachas
playita
escribieron
tomatela
##quena
suelos
bisexual
juntadas
amenazo
vie
escasos
##nizar
recientes
amoorr
stephen
descubriendo
califica
qro
botin
uste
##sol
errar
plantar
defensora
golpeado
huelva
iguaal
obtiene
quiebre
gorditas
despiertos
propagandas
peluquero
petrolera
deprimido
minimas
roo
##vie
recordatorio
autenticos
videla
clavas
confuso
persiguiendo
tantisimo
##ume
anduvo
irregular
favorable
veniamos
fusion
vialidad
##cios
stalkea
zocalo
enteros
encontrare
morocho
recuperate
observo
imaginario
tete
estornudar
##llado
troya
escoge
tragedias
humos
maidana
metallica
solicitamos
##ntan
ceo
quiereme
masturben
##rima
preferia
##hada
referirse
yao
##ndida
babe
ratones
profugos
easy
##piacion
enfermeras
lla
calentando
espinas
respirando
vascos
ayudamos
menso
permitiendo
bajale
provocas
qiero
ruin
ladran
veganos
vividor
caias
amigues
tropezar
##reando
desperdiciar
extranes
recitales
estructuras
pasaras
utilice
influencers
reportero
vaamos
legalizar
narnia
psiquiatrico
aritos
distraccion
babys
enfermeria
morros
abundante
aval
vegana
sarna
##zio
damn
zp
boudou
lunas
vegetariana
pedire
##icacion
##tazos
nope
secuestrar
##cela
oka
##taste
destrozo
##gones
checo
superalo
representando
corrieron
ligo
limita
narrador
acude
epueblo
presentara
anzoategui
violentas
encontra
josh
llovia
##igma
op
##caro
griten
perdonas
berga
desconectar
fis
flaquita
largate
empates
conos
mestalla
equivocaron
##rgico
##bita
calibre
operando
banado
pili
artistica
autonoma
jvc
discrepo
malparida
##kito
ahoga
pasarte
palmeras
suelte
##ticamente
champion
ibague
seudo
macristas
olvidara
elote
goll
comunas
loli
controlo
zap
fanta
ppr
prison
##sti
##uchos
fingiendo
napoleon
##gata
##rpo
edades
##stes
gray
matarr
gordura
conquisto
pirotecnia
protestando
put
verles
nal
yuri
kpop
restrepo
cuernavaca
##sando
arruinan
bustos
oyen
##tian
andara
honores
ferreras
brazil
fausto
telefonico
##fio
##sina
confesiones
##vine
promueven
vertigo
odies
escandalos
##chy
##tios
enojados
##bian
reconstruir
ayudemos
garza
peligrosas
punteros
##aza
pipe
rian
reja
disfrutarla
practicos
comillas
jugaban
extradicion
talle
proviene
carranza
abrimos
espectador
retrato
timida
progresistas
##gadas
prov
revertir
maburro
puntuales
resultan
##hara
##cic
nasa
poniendole
ani
##midad
chistosa
administrador
times
mintieron
maquillar
motivado
shots
corrige
##ldi
##rron
yucatan
dedicarme
cambiare
miki
michoacan
rubius
divertidos
th
terminada
determina
mecanismos
malvada
sticker
##duce
estalla
foca
##quila
store
##erio
##citar
notaba
nyc
sacarnos
pasiva
omision
electorado
nery
yourself
acordarte
imperial
marchando
discapacitados
salchichas
pancita
drag
frena
##puse
artistico
##fiera
patea
vp
cameron
teacher
doquier
habilitada
fermin
llegaban
tannto
decano
mezcal
atrapar
subvenciones
##tologia
bermudez
concentrado
mat
procesado
unete
##bers
combina
aldea
igualar
munecas
otaku
teques
env
sun
esperabamos
llevarnos
ata
ptos
corporal
hundido
nacos
##jsjs
cirugias
coquimbo
enganchada
sintoma
adjetivo
gancho
puteada
deplorable
despertaba
olvidarnos
tornado
separo
##cte
##dm
##nny
permitira
##fecto
colabora
song
atleta
sudamericano
##ston
comenten
naada
##uir
##ari
thank
estructural
pantera
##ismos
eliminaron
##gruente
##niendo
##nitas
manicomio
comprometida
flashehen
##ctivos
hart
hagale
fantasticos
presenten
terminaran
enviarte
arevalo
##dj
gh0
pedorra
cambiaran
tardas
nocierto
lesiona
ice
##ifiquen
rectificar
flasheo
olores
tibisay
hinchar
##anero
irrita
plz
polanco
limonada
circulos
mandara
descubren
##nts
ilegitimo
##nerismo
lucena
demoran
##rts
leiva
particularmente
rancia
dietas
gaitan
##taje
habita
records
servia
tardee
evasion
llantas
granizo
dicta
zambrano
pararon
parten
suavecito
psicopatas
confian
fabri
##gr
long
ntvg
tee
weed
##geno
mentido
##fes
licitacion
rayada
##uina
chismosa
nesecito
lote
ayudaria
buenisimas
gonzalez0
sgto
hariamos
eliminan
carencias
cancele
pesimos
compleja
mane
##€
curiosamente
##grana
entrevistado
empieze
veda
##esita
canilla
darias
##mma
porton
jueguitos
##rime
tin
##ou
ilogico
matarla
abarca
caseras
credo
bolitas
molestes
temon
pichi
yandel
##prudencia
logan
divierto
seguirle
barreto
pisando
copian
fala
ahy
coordinar
acostumbrarse
medianoche
veredas
miamor
newells
##ujo
flaite
carpetas
demagogo
ahrr
pisco
##coso
valledupar
recuperes
mensa
viajado
##idente
mayra
reaccione
##liza
banqueta
elche
##ducto
acuerdes
bloqueos
fisicas
ponzio
ingredientes
descender
armaron
bochorno
intocables
nerea
desprestigiar
solicitado
##rade
damnificados
telecinco
chacon
demostrarlo
##oja
##onal
ae
pinguino
##ctividad
##judo
cancelacion
lamentar
trescientos
parecian
serenata
##cran
bodrio
##guear
asiste
coinciden
##tisima
hannah
##eton
pulseras
regalamos
##teado
incoherencia
##gatas
##more
complicados
enemiga
telegram
despedido
acumulado
##andose
##stecimiento
bajes
asquito
canario
intensas
##log
chulos
excesivo
hablaremos
##istir
interactuar
madure
involucrado
pitan
arica
barinas
despecho
dejenlo
alien
##tum
arrastra
sister
tripa
apuntar
##tarios
enanos
rg
cooperativa
decirtelo
atrocidades
##nee
tibios
hermanitos
suplico
cobijas
##ndan
chiques
barovero
##ash
##nu
##xos
xque
despedirse
territorial
mcdonalds
reasons
concentrar
concursantes
cagarte
homicidios
agregue
almendras
amame
putea
montan
picos
##anismo
##orado
afortunados
##uen
almorce
##wer
beltran
martir
civilizacion
imparcialidad
seguirla
##migo
pikachu
##face
terco
construyo
##tidos
ganados
##rimido
restan
##h0
avisarme
inmensas
asados
tbh
pegaria
playback
walker
clash
mitomano
quere
sume
am0
biologico
hagase
sentirlo
##anas
sueltas
prejuicio
ladrillo
guarderia
inmadurez
##ulta
##tisimo
activas
curo
rebaja
##bc
##dium
siguiera
guacha
pegaste
arcas
fly
prestas
pelas
barbaros
tennis
desconfiar
escondidos
emotivo
ofrecido
mamones
lecturas
necesiten
oremos
calorr
parking
teorico
descansan
dane
preferis
##rix
bajara
flora
##vertida
cloro
determinado
muscular
kca
brasilero
##tencion
resignacion
obesa
quw
wachos
iluminado
luque
##aran
apra
##natural
stress
tupper
estragos
piropos
protocolos
culpan
djokovic
osasuna
cantabria
ocurrencias
##olver
inestabilidad
bailarin
recordare
traumas
agregan
##quistas
egos
magui
cachorros
limitada
antonia
vivire
naty
peludo
##ricio
rotundo
luche
baradel
ibanez
colombianas
pozole
##ight
actualiza
dependiente
escapada
##erno
pasteles
##osas
manejado
venus
ancha
mariscos
vanguardia
rastas
tickets
vierness
##kia
conchetumare
cordillera
sancionado
tramitame
financia
panelistas
presumen
##imen
##cucho
##dxs
secuestros
injustamente
clon
##venido
bizcochuelo
copiando
cas
nica
polarizacion
tla
adivino
amb
freezer
trotar
##borar
##arias
bellezas
igualita
abordar
descubro
lograra
radiante
##queando
robarse
maniobra
##unde
neoliberales
##leon
aduana
contundentes
oyes
soo
fractura
manifiesto
brasileros
ki
impuso
juran
bianchi
proveedor
aceitunas
channel
participado
##ius
planteado
guru
##mentan
defendemos
comprobe
juna
seais
traiciones
tirarte
##dlo
chelo
pizarra
barros
osos
castaneda
crueles
##we
yerno
bicis
monedero
acababa
##visto
aguantaba
cause
priistas
burradas
selectividad
##ipe
chillan
ensayar
fmln
traemos
##gus
pactado
fracase
burrito
intacto
manto
##garse
conurbano
incomprensible
nonono
##psia
violaron
##ueno
defenderlo
##por
gasten
kylie
arqueros
fachero
faro
armamos
habemos
flipar
##rton
pinar
##dc
placentero
##rini
marcada
sfc
twitear
kilombo
##late
boludeo
##ingo
alejan
##drina
britanico
amis
trilogia
complaces
pogo
##oz
##porte
heroina
telo
##bur
jna
limitaciones
encabrona
llenarte
vendian
antoje
##y0
pillos
##gazo
dedicarse
reverenda
suscribo
masacres
superclasico
piercings
matate
chicles
tiki
unf
arria
tranki
conversa
hnos
##rota
##boro
##mpre
deliciosas
pesadas
hastag
subs
precision
##loe
aciertos
pame
guevon
populi
franquicia
##rial
magicamente
escribirme
##enda
caminas
perez0
sucedera
ambar
infidelidad
franquistas
brillando
carrefour
mazatlan
querernos
frozen
gucci
inventes
comparaciones
huawei
martinez0
##aar
reunir
locro
relevancia
vg
reducido
doss
facilitar
paraco
ejecutar
profeta
asu
decimo
grace
cartelera
##cibo
saluden
creida
##ecas
ventanilla
acostumbras
demostrarle
gel
aumente
sobrado
manifestar
##caa
mandandome
vapor
##gnar
tlalpan
transitar
trayendo
abundan
pesas
ada
innecesaria
veto
ult
##tuve
ocultan
pagues
garche
percance
##qlp
candadito
part
bebi
evitando
botones
dilan
emperador
pdf
brevedad
eliminando
bicha
escribimos
inspirado
##sse
ocupas
minecraft
pratto
cochina
sagitario
empujar
##bres
##trol
cierres
##tente
villalba
carl
superas
gestiones
laceiba
lupa
padece
telcel
##enti
amateur
runner
claven
joderse
##moto
laser
anticipadas
magnetto
##bolica
##viendo
dique
cuatrocientos
rotonda
gancia
##toles
caeran
far
##fs
##uoso
ensenen
mza
prostituta
triunfa
aleatorio
animan
recorriendo
engancha
lab
referis
peroncho
##pol
##culos
descargarme
jalas
##sj
chaha
aceptaron
##ecita
##tinos
##rti
abasto
afloja
buzos
europeas
conociera
##get
manizales
metodologia
##pirar
kennedy
querran
trastorno
pelearme
moya
desbloquear
condes
listoo
##tula
tiemblan
confrontacion
desearte
sandeces
coreografia
guate
covers
tomates
mereceis
continuara
contrataciones
unimos
volantes
##nida
escusa
siguenos
abrazas
##raz
depresivo
tremendamente
juramento
tr
##blanca
arbitral
pacotilla
quesadillas
joy
polvos
evolucionar
oportunismo
##cp
escritores
esplendor
ingenua
##mpo
rancagua
tdo
tocarme
water
##jados
mujerr
milton
modas
games
molestas
impiden
##rean
subirlo
apagan
chilenas
##cala
avisenme
convenzo
xdios
amanezco
mantengan
herrero
amm
empujon
##lus
telegrafo
memorias
carecen
batido
##bulo
ahogando
##dromo
##rroja
grillo
apagada
decidas
vampiro
forestal
existes
presumiendo
usb
zacatecas
calleri
desnutricion
habilitado
venirme
confeso
predicciones
yami
nobles
emprendedor
autocorrector
aria
preparense
##disimos
atacado
maleducado
maza
presunto
referendo
resurreccion
##ctores
##ldad
office
salvamos
serra
fluido
##celo
conchudo
maldigo
salmo
##td
camionetas
recientemente
probo
consiguiendo
ferrer
alcorcon
ojotas
rotacion
wall
##nomico
callense
paisas
##dian
psicologos
yop
aberrante
innombrable
reportando
hormiga
ilusionar
traicionado
cruzas
orellana
conocieron
##fran
huela
montenegro
hagalo
##ngue
disgusto
anoten
todopoderoso
##zamos
##ministro
inscribir
vicioso
javiera
tirandole
gravisimo
abad
pex
salcedo
socialmente
matinal
arruinaron
tontera
##gular
impactada
revolver
tvperu
##cencia
cabana
felicitaras
masculina
sebin
##lsiva
contigoo
prepago
indecisa
piro
reportado
burlo
charlando
renga
respondeme
cabj
sabri
hazana
sufras
papelito
prefirio
tecnologias
intereso
##cao
##cerro
##jis
pudrio
antibioticos
condeno
especifica
heladeria
##sitos
creativa
cometidos
##rrado
##rles
arreglos
avanzamos
##onar
olmo
petardos
gastritis
ilicito
felicite
organizan
##gor
senior
conocidas
diosas
platino
carabinero
ascender
##nilla
##rnidad
pichon
cortijo
drive
ximena
maldades
ventura
levantandome
proba
autonomos
lilian
condenan
neto
xix
reunirse
molotov
comoo
poor
agencias
boricua
contarlo
latidos
pleito
legalizacion
cuco
hijito
centimetros
fallen
euge
originalidad
faena
jumbo
pesimista
dory
elizabeth
cachito
elijan
desnudos
intervenciones
japonesa
mile
vettel
##jillo
ignorada
interprete
agradecen
novena
##tramos
samu
##chara
##duzco
lgtb
magazine
respondiste
empuje
cocinas
dee
entres
darwin
jay
patrona
##erados
patata
##billa
checar
cabala
emocionan
irak
observando
miremos
deos
cabecera
invites
miraban
izquierdista
##raria
oliendo
##stica
comparsa
juntitos
##tiempo
hipo
estacionar
paisanos
advirtio
confundio
implementacion
imponen
berreta
##pacho
elites
##erta
impida
agobio
leches
gacho
frecuente
##emia
fantasy
patita
acosador
cruze
enviarle
film
importaria
lucy
diplomacia
politiqueros
necedad
regina
anonima
abonados
beneficiar
habernos
nob
abracen
shorts
vikingos
##lenta
descargando
##mitan
infiltrado
##imi
aiudaa
neyra
homo
tiroteo
incomparable
abusa
barbi
##ede
aprendas
cheve
##queria
##zadas
amados
cagandome
holan
negarlo
lograremos
retirada
johnson
renata
confundiendo
##rieta
ubicar
##plante
vigencia
amii
sonria
peticiones
sandalias
##erar
tucu
advertencia
arriesgo
superada
visitando
vzlanos
vendida
ganass
##crito
causando
odien
##ram
burguesia
quijote
##ndolo
resaltar
eugenio
gelatina
valoras
##toy
franklin
chiquis
##ronimo
fort
ineficiente
callejon
evil
cuidese
pedirles
##tol
melanie
jan
vendrian
guiar
sencillas
moreton
metafora
traicionero
profundos
aumentado
munich
vali
manya
sensualidad
apartado
cooper
tribu
pararse
broo
porfavorr
destinados
cumplira
curan
retrograda
brutalidad
inepta
productora
hinchado
laico
reacciono
recargar
animalito
cumpa
zika
pedofilia
sia
comisario
contribuyentes
tenir
##ade
##giado
qye
cds
copie
leerlos
gustaa
##itio
##tizo
averia
chichis
quisimos
enganados
reparte
##rran
patos
gomes
chapas
cactus
desproposito
gonzales
intelecto
perlas
##pr
##rritos
##dible
generosa
traducir
##enza
faz
wuajaja
decirselo
##jio
camping
alzhehemer
##berry
amnesia
cleveland
arrepentirse
hubiesemos
comiencen
rencores
sabess
estudiaba
mercancia
mistica
pasarela
pastores
mejorcito
twittero
brillas
emocionales
acercar
mancera
lona
##stian
hampones
concordia
pai
peajes
##vias
aprendimos
manipulan
llorente
fortunas
maestras
la0
##house
##anita
jaen
neruda
cercanas
islam
rapero
gritaron
cambiarse
fundador
socializar
##itacion
subconsciente
fisicos
dh
olmedo
##itico
meterlo
##gnado
##kar
crios
luci
suegros
##mena
detallista
vaselina
zoom
##itoo
encerrados
marisol
muerdo
salmon
santisima
anunciando
carcajada
echandole
sesgo
amargados
mixto
chanclas
discuten
##lins
cometieron
periodos
##ullo
oyentes
sacerdotes
actas
trabajadoras
juanita
take
##liz
##sap
aburriendo
usados
chorradas
prestaciones
opositora
volvernos
equivocadas
calzoncillos
partner
palida
modem
regalada
recibida
deadpool
##mond
##nacional
ludmila
##zel
actualizaciones
ahs
marcaron
debatiendo
solteras
blablabla
cocinarme
##flas
discriminar
ayudarlo
incidencia
incidentes
avisale
regalarte
conforma
sat
huyen
voluntaria
##vit
conver
quinientos
##bina
balbi
juraba
paralela
chavarry
humm
carisimo
alimentaria
entretiene
tutoriales
correctos
cubren
planificar
resultar
##rdos
tactico
##nlo
chefmx
style
aflojar
anonimato
preparen
disputa
gto
arruinado
sancho
asimilar
ucl
##pper
clavando
diplomatico
abrazarme
creativos
ruleta
##esito
disculpar
produjo
##jeta
cjs
negociado
flote
maltrata
museos
beat
carlota
vivira
nutricion
informaciones
putazo
uru
##joy
ceniza
estresado
vanesa
chubut
lipa
yoongi
peaton
pegarse
servis
huila
parrafo
suscripcion
stones
ilusiona
baston
metanse
arango
##liga
olivos
gales
poderte
tes
pedoo
##pino
estafador
musiquita
panchito
said
bendiciendo
juegazo
excel
moran
rolling
sirves
quevedo
mensajito
escapan
simio
##tara
##tres
recomiendas
torpeza
brujo
conoo
inunda
servil
linndo
senil
cercania
traca
ejemplares
recuperarme
computador
seque
preferi
cantos
presas
##cla
forzado
quedemos
sillones
zoologico
cachondeo
cortita
junin
fisura
##art
celda
debacle
rarisimo
rechazan
consiguieron
veron
complot
traspaso
##ueta
bondis
olavarria
coste
escuchare
producido
seguian
confias
quinteros
foo
##ith
##jana
##spa
desmanes
arta
manejas
ostras
anticipacion
culpando
peorr
enfrentan
insultado
compartes
igualitario
##gno
tol
##demos
callarse
contaste
protegiendo
##giendo
aseguran
decidme
infieles
##zis
benefician
divisas
arthur
allen
desayunos
juas
desastroso
galaxy
cadaveres
escupe
captar
mantuvo
profugo
representado
##ova
chiquilla
dolida
pamplona
arya
##erza
merecias
mantenerme
sangran
admirador
tocada
##ensivo
impactante
nmms
perri
distincion
llenarme
rolando
alexa
controle
feliiz
apreciado
##tigo
repetirlo
destroza
bendigo
echarte
cascara
urbanizacion
boludaa
concacaf
paladar
chichi
frustrada
recaudacion
##blemente
caps
duenas
kids
designacion
watch
gold
esconderse
##lde
identificacion
perjudicial
banarte
nepotismo
palestina
respalda
urss
zas
atletismo
bayer
buffon
##utica
mayer
##rulo
chocha
jime
mann
representas
escombros
maps
cancelen
reconozcan
##formidad
repertorio
##tie
ansia
##diario
pensare
enfado
lq
##mbia
partidito
##book
metiendose
pir
contradicciones
condenada
descalificar
preguntandole
yanina
gradas
##int
bartra
agreden
tita
##pusieron
enviame
insufrible
tiempoo
tranquilas
##izaron
##noo
optar
##tivamente
prro
kris
ediciones
bigotes
chicharito
aue
monologo
superliga
maricadas
problem
postor
aj
discreto
encabezado
ati
cucha
confien
cooperacion
##ute
pic
##rello
##mbres
portales
zelda
renuncien
timeline
disponibilidad
gubernamental
roi
##sero
asquerosas
coges
##diccion
chuck
chungo
##ois
reformar
##uh
##sticos
retenciones
tragame
timido
ortoo
guardian
kajaja
##duria
atractiva
broncaa
vanidad
##iosa
salseo
agresor
##lopez
##evi
##lton
criollo
yayo
aly
callejero
adversidad
folio
democraticas
ilegalmente
zapatilla
##otr
moralmente
pilares
alomejor
credencial
hueas
##entito
escoltas
horaa
villavicencio
relativamente
##entan
compuesto
adjetivos
dormiria
inconvenientes
ip
accesible
salu
##pista
giuli
horroroso
johan
auxiliar
kate
##nha
##vencion
##estra
##dem
gemelo
asumen
ferreira
vibora
##uren
jajasjs
brothers
finalidad
predio
cebo
hij
ubica
remake
anito
buscame
mandarlos
tomaran
valorado
austin
pork
sandro
reclame
dragones
malito
otamendi
##ndon
bufon
expuesto
guardados
emite
travesti
ibex
##gote
pus
organica
mare
funcionara
tratara
acariciar
deficiente
morirr
nadando
nne
onde
regano
timo
ciegas
extranjeras
industriales
roce
milena
medianamente
olvidada
wwe
patinar
ksa
remoto
bren
chicxs
llorare
##verde
##siste
caluroso
escribirlo
##rano
arrepentirme
citado
cdf
disturbios
turca
cangrejo
##mine
procedimientos
directivo
maricada
##ende
pocho
punado
preocupando
regalitos
##gerir
##nales
##onn
##dle
bombacha
cabreo
fabricas
##ucci
fdez
farina
pantuflas
acabaran
lila
tacto
cogida
corresponden
fijense
diluvio
anonimos
capricornio
fluir
guaira
leticia
testimonios
offside
##rmar
##yd
surgio
cretino
egresado
humorista
##ert
monteria
saqueadores
vestimenta
bellisimo
encara
##bao
##utivo
deep
seven
##ceno
##rtin
ninita
perversos
planea
vitamina
indices
marrano
rafaela
callampa
debilidades
convertiste
##echo
##orr
##llano
albaniles
analfabeta
mickey
papers
##urro
##uas
creyentes
desinteres
##marco
alberca
decidiste
##cea
ney
##onistas
conduciendo
soltando
valenzuela
presten
regresara
##dx
arrastrados
cachondo
paranoia
esbirros
escolta
fabi
descomunal
##esca
avanzo
ilegalidad
jal
sirenas
woww
apatridas
interaccion
pretendia
##dua
existis
##diga
msn
##rante
derroche
ordaz
bach
martu
parcero
nominaciones
##pear
descerebrado
imputados
cocinero
reproducir
complace
merecio
##ane
##roja
flamenco
great
podriais
cid
clarita
parlament
validar
##pire
quesos
jajasja
dlv
golpeando
baterias
ibuprofeno
vistazo
irrespeto
want
despidiendo
delcy
fs
jungla
recuento
conformar
registros
despiden
directas
escalofrios
tk
##eciendo
abria
ilustre
complicadas
modernos
queridas
elvis
temperley
maltratan
destrozos
obvias
##inga
bautister
galvez
lacayos
bancario
impaciente
pick
int
recortar
llenarse
preocupas
criado
inician
##idencia
##ife
##patia
ajustar
despertas
##work
contras
desaparezcan
semen
aguada
compartida
zelanda
comunico
destacado
aposte
##erte
aguantado
cumplidos
octavio
mw
valles
word
ypf
alejando
gian
escorpio
peluches
girando
racionamiento
vu
##arla
robarme
cursada
fichado
medel
administrativa
emmanuel
volteo
##bico
malta
cst
grueso
imaginese
##ebo
##ulados
limit
eliminen
deliciosos
descubrieron
sem
sustancia
wanderers
trancon
levantes
acashore
veranos
##urito
cuerdo
carnicero
complacerme
presuncion
limbo
rincones
gin
blues
##creta
amsterdam
##wi
ataja
gorras
ted
##jilla
activista
aii
##laje
morgan
acercate
predecible
apoyarlo
cavada
eriza
molestos
veraz
##zola
agradables
cocacola
precedente
direct
medicas
##zman
outs
##oria
ahorrado
##mbra
campesino
palante
soon
misil
establecimiento
top0
hooy
pajaja
saquenme
sentirnos
focas
saludamos
burgues
pillas
scott
deberas
##pulo
patin
pecadores
consecutiva
jurao
reventado
##cismo
##uelve
sociable
##thing
validez
comunicador
magali
neblina
lagarto
mierd
ahogarme
##port
rally
explorar
lama
amalia
cringe
declare
glez
afanaron
amarnos
instale
lamentables
barbas
tender
alejarte
arto
velar
sucesivamente
##enses
##formista
##rrista
agrandado
vikings
##tive
planilla
juzgo
esquemas
##ites
jodi
pinshi
pacificamente
nd
alienta
congelada
tostado
##all
brito
quemas
retener
comporta
arrugas
pesao
##gidos
##reros
##sistas
##jijindo
##quez
##lm
liderar
enloquece
##tate
grupal
pitt
abrazan
##tone
mrd
##ferir
encaje
sufran
absurdos
chavala
andaluza
nahh
cuidarlo
ollas
ordenada
temazos
movia
viale
luana
guias
pedirlo
satisfacer
cachonda
douglas
##oteo
##icar
chillar
##altan
drogo
bailemos
##anito
##diaz
oscars
felicitarme
frutillas
chingado
bastardos
estrellita
##titucion
##dimos
huyo
baso
correspondientes
lanzando
atrasada
waoo
ain
mcjr
##scrito
polola
latinoamericanos
banando
generalitat
ardido
##tense
comparable
ketchup
gramos
shop
bestial
##ondo
vinculos
emigrar
bocon
colado
molde
namas
enfrentarse
francis
pronosticos
equivoques
bol
sucesos
chuta
charlatan
vaqueros
maleducada
piquetes
academicos
vicepresidenta
##rachar
exigencias
promoviendo
skin
nova
skins
alfin
scocco
zeta
##citada
boggiano
mrc
proveedores
##tibles
ballet
tecnologico
tejado
incluyen
evelyn
liliana
##cemos
##sson
solano
saltado
##ppa
poetica
eri
vr
cis
cultivos
andabamos
cansaste
inaudito
gina
##ribe
contenedores
##lido
arrepientas
retrogrado
##ndieron
reservar
##uba
amorosos
egreso
orando
track
ayn
cantaron
celulas
puess
##ung
##cones
joey
castigado
cometi
football
acompanarnos
averigua
##reto
molaria
viviente
contemplar
agostina
arreglaron
bd
mendigo
##plicito
##garme
premia
##mentaria
tusa
limosna
corredores
##bral
inmigrante
##apa
grupera
pedagogia
respetamos
apropiado
pay
##feo
indicaciones
michetti
panamericana
distraida
##luya
exteriores
felicitarla
killer
##sel
pot
recuperarse
quicio
introduccion
curico
roncando
insostenible
madrilenos
priv
tentar
##mor
loros
compite
informamos
wendy
elia
normativa
palmeiras
##alidad
serial
diaas
##ebol
parejita
rafaga
rindio
##ndito
##structor
mos
##pete
##iliado
novo
##nso
procesar
seguidora
##itiva
##tique
vencidos
espacial
atentamente
vienee
compis
sembrando
caian
renueva
lala
colastine
place
contrate
sprite
tablero
evite
##ogico
almada
##umadre
escrache
rbd
##grienta
##ov
lombardi
##eg
tratamientos
xg
##rnes
sas
valenciana
verificacion
abuelitos
cagaria
forzada
##press
cocodrilo
hat
mostrarle
veoo
##sey
nqn
heterosexuales
speed
bailado
cerros
##caba
##uck
concretar
danino
manchas
##yectar
chinas
chingonas
consecutivos
zo
condenas
vocal
mascaras
parecidas
velo
determinante
rw
diselo
demostraron
chucho
mangel
##blar
acostados
##vero
abandones
better
direcciones
funcionaba
sarta
asumido
venias
##ivamente
clip
##madrid
estero
##ducida
matriz
senorito
salirme
colectivero
corso
chamos
zurilobos
audi
kelly
besado
villero
agarraba
amanezca
fijarse
##nomica
coincidencias
hazle
techno
bloqueados
carniceria
dichoso
##igia
glamour
ocupacion
llovizna
rappi
misterios
construyen
verdugo
##pora
exagerar
estadia
cumplida
##vers
acordamos
##jeron
##onte
licenciatura
quedense
valoracion
calvario
alcanzado
demore
nit
bebido
indepe
##inia
concluir
contagio
contestacion
hunter
exs
respetuosa
flipante
xavier
pagaban
derby
arrepiente
confunda
ledesma
##ifa
nachos
##deen
defendes
enojarse
enfasis
beneficiado
vibrar
esguince
caguama
mediados
##gable
tostada
horrendo
truchas
residuos
##encias
inside
corneta
##guia
melgar
compensacion
conecte
intratables
mueranse
salirse
##stion
alternativo
globitos
##sc
calificaciones
musa
panistas
punal
##entada
transparentes
autoritario
fotografa
dave
ecuatoriana
##game
delicias
encontraran
magicas
aspira
dental
aleluya
autopistas
encargados
platea
##clamo
reparten
khehe
##ocia
bobada
inquietud
llosa
##uman
animes
meditar
movidas
difunto
migue
recordad
engorde
editor
##nez
coscu
urna
dudoso
gasolinera
acompanen
viviste
reggae
##lano
demoras
gustarle
internada
pesitos
bilis
almohadas
liberado
invitarte
traigas
imitacion
caseta
##grar
tinte
tobillos
dieras
montoro
latinoamericano
##jando
jum
##idito
obligue
contraten
lidera
sepais
diestra
iguala
desarrolla
##ntre
sanas
voa
zi
msjs
supimos
wanchope
about
mierdero
molestarte
sobornos
entendimos
hundiendo
ardor
derrito
imperialismo
##bron
##fic
bom
history
indignan
perseguidos
atrapada
interesar
recibidos
maribel
rubro
agresivos
##inson
desconocen
profesionalidad
##bilizacion
##lte
artigas
daiana
xdxdxd
##istan
jebus
narino
##ibo
aura
clemente
rechazado
todaa
cortarse
coming
meri
capullo
preferir
bravas
abeja
sometido
pitado
dise
potosi
##piar
compensa
tomarle
halago
dono
ignorado
viajamos
chamaco
insulte
##minas
panocha
puf
ribera
##umbre
admon
radial
cliche
##dep
##fg
apagones
##esh
##mite
industrias
crota
diaz0
llege
jere
otto
baul
chafa
decisivo
acustico
capilla
##hela
forza
almeida
##fil
##calde
##lub
plastica
ilusione
ladrando
##meno
rodo
monsenor
calumnia
ylenia
eficientes
##icios
regales
twitch
##ub
cursis
burguer
propietarios
princesita
##bb
##uk
chapecoense
rendido
##ehe
##cimos
eches
querella
oligarcas
##vierta
inmundo
marxismo
primordial
contestaste
parla
wnes
##luna
acosto
descarto
imitando
rebajas
operado
##traste
calido
columnas
##cakes
##urada
firmando
rudo
sustituir
criolla
pertenencia
jugos
contagia
parti
##gers
cg
##tue
recordarle
munecos
poche
##uc
usaban
trabajaron
tragado
##ium
inmorales
negaron
benditos
telefonia
##ncie
acomode
ping
##dex
degenerados
hablandome
ocampo
##arnos
##crar
enferman
agradecerte
caruso
garcas
lily
jadue
soler
bogotanos
manipula
sintesis
escocia
##tuo
flauta
permitieron
ellaa
obligaron
dictatorial
drogadictos
freud
##gatos
macron
##chados
latinoamericana
##city
dg
cassette
pizca
reinado
importado
intolerantes
preguntaste
reportajes
restricciones
simulacion
orrto
noah
estilos
gustazo
##cor
there
muriendome
nini
salvadoreno
comunicadores
##paso
beneficiados
excursion
momo
viajas
decidida
reposicion
##diste
contradictorio
alimentan
perdones
mother
vertical
##voque
apliquen
apetito
belga
etcetera
itunes
surrealista
pureza
rurales
chingones
darselo
##tales
antano
stalker
ace
gastarme
escopeta
sabee
##hala
abandonaste
postal
religiosas
abandonaron
alejes
romperse
romanticismo
##jisimo
nemo
frustra
portuguesa
jane
##dus
##uctor
herzog
inning
##ricos
asaltos
days
detuvieron
feito
gomez0
cont
culpes
nuevoo
tiranos
descuidas
partidarios
saquemos
congelado
duhalde
mesita
cristales
exhibicion
##camiento
ceros
##maria
cajera
conservadora
##iadas
guti
sirvieron
dichas
##bilar
##rth
complico
matarse
pozos
repechaje
since
tropas
aquii
peninsula
yoli
ayudante
xl
##riera
babas
##cuenta
enormemente
relajarme
tirate
epidemia
kilometro
##ase
mails
pagarme
pajuo
##ponen
##lazar
##ssi
leere
##rona
billy
jangueo
intrusos
proces
brooklyn
##erita
muevan
solucionarlo
desactivar
##ntando
colision
recomendada
##down
medrano
nucleo
dispositivo
rivalidad
portillo
##rense
deterioro
##fest
cage
jugabamos
##bl
barranco
carencia
newell
saprissa
sotelo
##cheo
##onda
organizados
protegida
derrumbe
alejas
cldo
essa
##lic
ri
sobrinas
cervecita
##generacion
##ijan
conducen
pnb
cumbias
ofensas
oponen
rebeca
arruinando
compatible
botes
ina
robots
aportando
##asa
##bajo
compitiendo
currando
##lua
engordo
improvisacion
acusados
arrepentidos
culata
daenerys
estudiaste
renzo
toga
##metria
congrats
##gn
cuea
nazismo
punteria
##br
escondio
galeano
ono
parese
##timar
cultivo
yogur
hamaca
rebajar
sorprendera
tertulia
tortugas
pegate
admision
menudos
##todo
terremotos
comportamientos
sangrar
sexi
aquiles
navegar
realizacion
relojes
##patico
aterrizar
moderado
bolt
moi
##tenta
faveo
gigi
ilusiono
martinelli
##entado
brindan
slogan
##nqui
higgins
inscripciones
##ae
goce
esmeralda
sobrevive
mao
pruebo
##ifo
adaptarse
arreglada
decoracion
leerla
organizadores
vicuna
respetas
presentamos
##ologo
##mian
##matico
mexicali
repleto
interrumpir
provi
mouse
envias
##pro
mordida
ayudenos
garrido
avi
micha
##ulto
##patria
##coli
job
cambiarla
cuentanos
##parte
adhihiro
prohiben
regresamos
estandares
garces
tratos
##ntados
avenidas
mela
vomite
despeinada
origenes
caminamos
acuden
##bie
##ptos
huertas
envejecer
hits
pasandola
solucionen
educa
deforme
elegiste
viendola
conocere
fashion
panelista
##usto
ubicada
restablecer
##encio
conazos
##xico
ban
triangulo
##chitas
citando
pior
letrero
cundo
nunk
ru
##josa
analfabeto
loquillo
##erda
modalidad
oliveto
##rrando
diciendote
colorados
autografo
cubiertos
inmune
noa
resena
abunda
consentir
ruda
tercio
usarlos
##paz
##jeros
vitoria
incluya
penosa
choros
##didas
lauri
cuchi
eficacia
invaden
parcialmente
sonrien
exclusion
##erve
toke
distribuidor
titularidad
latir
##nla
nutricionista
ww
marquitos
mesero
##ieta
marbella
liberen
##nci
maltratador
poe
preparadas
delta
ponganle
maletin
turron
parando
##vidad
distraerme
raoul
diploma
##upi
##fate
##igno
##rmen
forme
##eal
navidenas
##sico
exagero
senalo
culiar
maraca
ucv
podridos
remando
participaron
maass
antiguedad
ginebra
##carse
dudosa
puntaje
##err
##lencia
jona
##cora
barralesm
disculpo
performance
romana
##minal
brutales
bum
golpean
manejaba
##tora
solicite
gino
helicopteros
tiernas
##bdo
calabaza
brasilena
carina
olvidados
remisero
campin
obedece
asesinando
hallazgo
presentadora
##eon
busquemos
imbecilidad
##sque
someter
##bata
poetas
##illon
budin
hagame
demo
nandez
##blete
##og
##izaciones
circulando
##cucion
melilla
loop
ruega
terminarlo
vulgaridad
##vira
carmelo
chayanne
alaska
confirmamos
roses
vasito
##cua
deseaba
oz
##reditar
podemita
cebada
factible
volverla
ronaldinho
bustamante
convierto
combinar
superficie
dodgers
reponer
cedido
cell
escaso
marilyn
osorno
##inados
portadas
metiche
abstenerse
mandos
genioo
relacionados
lechon
obligando
oki
inadmisible
##tidas
escudero
##tions
chuy
joto
asoma
lacalle
arrastrada
dedito
distingue
exageracion
hackearon
mariachi
chiquillo
##row
gratificante
maton
mimitos
##upcion
fomento
frazada
satisfactorio
borda
hercules
tim
##patica
##oft
paradoja
soso
desquiciada
implicados
asesinada
##ectivamente
vir
voi
##care
desarmar
bajaba
gon
hehen
cabio
receso
debiendo
botox
sugiere
##mc
ingenuidad
##llin
##ister
jajan
encantador
kukas
soyy
##meros
montada
mtz
##hl
hell
##gis
impresionantes
tovar
congelo
productivas
aproposito
caldera
contundencia
acuso
derroto
sonrei
##zito
denota
fiambre
anis
simpatizantes
lc
hdrmp
tamaulipas
octavo
tipicos
dosogas
thread
##stado
acercarme
limpian
##nudo
consuela
##ket
expresado
gambas
petrolero
tranza
ossandon
animate
modificacion
##cerse
##ologia
dependa
peto
honradez
jesse
##guenza
saltillo
##nerito
escondo
shower
bacon
elba
millenials
##bera
##tifica
crezcan
plantado
pea
propietario
valoramos
frescos
financieros
escabiando
gobernados
##ful
prospera
comprame
ucrania
avala
tuto
asustes
bautisters
fastidioso
innecesarias
calcular
proteina
##ioo
##verga
aportacion
wild
##elar
cards
granados
deberiais
permitirme
concesion
##shi
pasea
mejoran
descompuesta
maltratar
borras
extremistas
rocks
##ventura
remordimiento
##fy
try
hdez
rendirme
##bet
jajasj
tendreis
##lento
inquisicion
comparo
##sing
aceras
##rmo
popeye
chidas
##bila
gaucho
cant
polemico
rimas
avda
resuelvan
intendencia
patines
##stal
bondar
despertamos
venderlo
##mocion
js
viaducto
mds
eliges
serenidad
cuestiono
toser
llevarlos
montoneros
##duccion
##misa
etiqueto
luu
acampar
kv
pensabamos
jim
encantados
##nka
avanzan
espiritus
lodo
puntualidad
conejos
consolas
torcido
corporacion
##budo
##glia
apostamos
camello
legislador
acostarte
shi
fideo
cabronas
carito
hijita
fenomenos
##silla
decadente
incierto
##ceres
##rest
##ficada
tala
fren
junten
pateando
adquisitivo
grabaciones
##tinente
herederos
##eja
##roo
nachito
soluciono
gamba
##gil
##erna
geta
tribunas
aguascalientes
interino
patronato
stegen
##ministra
ilicita
interacciones
profesorado
rompia
##ribucion
jarabe
traiganme
##mitido
callando
comenzara
oreos
aconseja
dedicaron
hacee
##iseo
depositar
plazos
sacaban
##gieron
##guel
ambulancias
divertidas
relata
entendamos
elevar
kiwi
portavoz
sexualmente
##olvio
opuestos
concursante
estatuto
actualice
##rier
rindiendo
##yla
sobrevivi
##lsen
sanchez0
secuestradores
webeo
buitre
mamis
convencidos
two
##inal
##gola
incorporacion
postular
##negro
##epa
##red
danando
fas
ibarguen
monse
lastre
rompecabezas
qsy
devolvieron
nat
integra
templado
gastaron
bife
emocionar
de0
##nosa
chinito
retirate
tienta
##lto
cuqui
importarle
arriesgarse
placard
preparandome
privilegiada
desconfio
automatica
##bella
##uado
fraudes
personalidades
##ratos
##queros
gamboa
rolon
rondon
azul0
sha
##sible
obedecer
sse
##racho
agarramos
andado
cambiaba
##rlan
aburra
bildu
##mont
disenar
curules
tentado
tico
waa
##otaje
inspeccion
utu
##dh
slim
mandibula
pensante
##gantes
usare
alcacer
traduce
##ajas
viajecito
abrira
extranarlo
quemarme
wish
chingaderas
orgia
##verti
aguantaa
mediterraneo
dignamente
##bable
##politica
##quie
##ulador
clasificados
gozan
interesas
todabia
##patas
##lote
##nacido
activistas
##triz
autonomo
comprarla
hallan
##fando
##ndonos
well
impulsa
conformes
caracteristica
reflejan
tommy
oyente
proponga
estoyy
volado
costoso
vendas
congruencia
sentiras
##bula
manijas
supongamos
urgen
mordaza
iluminar
agricola
##rochar
##mpas
rescata
romanticos
ofendidos
sobria
##ull
saqueando
bri
escuchara
nuria
amenazado
cubas
komo
ilusionado
##vela
chicho
radar
vacilar
opereta
##filo
estudiamos
theo
chapinero
tdn
resp
eleva
relajar
demorado
##trocinio
ateos
hubieron
##egar
bat
clavos
explotando
boludoo
subway
ambientales
luka
secuelas
conserva
sidra
##voto
inoperante
under
churchill
jungkook
papelones
gaspar
poniendose
##puesto
acabaria
euskadi
janeiro
resbala
##sulto
boliviana
declaran
animado
sufres
suceso
ronald
venecia
plss
bipolaridad
lisandro
meterla
irian
pagarles
##ize
codos
fijos
clamor
##uts
copiado
monas
cotidiana
putazos
reflejado
##mitio
aviacion
cagazo
varane
##rtacion
votes
variantes
calefactor
timochenko
##juria
enviarme
mentiraa
suela
##lamiento
capitana
##ndista
saenz
visitara
zapag
infamia
##guis
jong
mir
fregar
##vice
camarones
mitico
sospechas
adopte
##cienda
buzon
reunen
##izamos
abanico
penes
bronx
logicamente
za
terceras
atraviesa
##ema
malita
yanez
acordais
chidos
cordobeses
##ebe
danielmartin
##rum
crepusculo
quie
triplete
##oco
engancharme
uns
recibirme
instruccion
calumnias
hinchadas
perderla
rachamax
casal
utilidades
##hacer
gramo
violen
##vertido
acompanamiento
emily
mua
pedile
##dres
##guitos
celestes
valijas
recibimiento
notis
sintiendome
codazo
punalada
variables
moros
saliamos
wajaja
administraciones
qp
neutro
##rraco
trapitos
##ncion
alcaldias
restar
coreanos
fray
##rcas
indirectamente
pidamos
##ciano
##max
##erada
##hop
##ndes
##umbra
urtubey
##peo
usara
flaquito
correspondido
competitividad
enesima
ees
kid
ledezma
golfo
supervision
asaltar
recto
##ord
avaricia
eles
trick
ordenando
sendo
##eu
##onico
##pira
##quiero
canallas
##udal
its
puedee
##entar
##deputa
payasadas
enteraron
hermosisima
reconocida
##viertan
subterraneo
##lz
weyy
incendiar
lml
colgo
femenil
procesion
##yecta
denuncien
dependera
difamar
sindicalista
impuntual
devuelto
expulsados
fono
inoperancia
bolu
bailame
##cientes
acompanamos
juzgando
voceros
##ecito
alargue
##view
euu
perdonamos
sacale
arrepentida
cost
huracanes
queque
spurs
procesados
anunciaron
ibf
encargar
bueen
escote
inaki
manipuladores
publicarlo
extraterrestre
sendic
surgen
##ive
##valida
delirios
rebeldes
pastora
stalkeas
nao
andare
ardilla
gafo
subidon
wonder
##huac
diagonal
fiscalizacion
marga
pinza
##rimidos
##lencias
congo
turner
##camente
calmas
##ors
mandarinas
pizzeria
##board
##duo
##ody
engane
##ties
crew
alucino
veracidad
sobrinito
##utos
cabrea
despidio
gratuidad
suspiros
##viente
##saa
##vemos
rodeados
respectivos
caliento
alzar
jubilada
stars
flasheher
rastrero
distante
estrategico
lewis
##duciendo
##life
disimula
##cana
decepcionar
derrepente
vikingo
napoli
setien
duren
hablarlo
tramposos
upss
mantenerlo
favorecen
lija
lanzado
##mosa
estevez
colesterol
desprestigio
entendidos
iniciado
mataban
##lacha
ton
##eb
hist
draft
ducharme
abusivo
defendia
audiencias
##ebre
extraterrestres
cuerpito
ocultas
playeras
grasas
ken
injerencia
##resa
##tc
efs
naturalmente
valentino
##rinas
juhampa
esteis
reporteros
zoo
##rices
solicitando
##icamente
##ill
mapas
##phone
activen
cesta
##ciso
##now
caverna
duelan
excita
##uencia
mandenme
rogarle
ganaban
privilegiados
rapidisimo
robaban
callarme
sopita
##entas
##evo
expansion
pellegrini
tiemblo
##eputa
##tmo
##uan
estadounidenses
salvaste
nochebuena
##traba
dirigio
impresora
maluco
##eados
practican
desenlace
##rrio
esperpento
##igna
condesa
andino
blanqueo
elemental
predica
amelie
coronas
renunciado
apatrida
flashar
aprenderme
##aos
nea
despliegue
matices
renovado
##rario
##bista
curious
gula
petristas
brille
##ish
chips
duende
enamorate
merino
##vid
##conexion
##ificaciones
maia
polos
##udia
grinch
preventa
sanguchitos
alertas
ejecutiva
extasis
##pedia
fiin
proporcion
##adero
atacaron
desbloqueo
divas
princess
solida
##mate
acompanarte
pidiendome
sept
anuales
travesuras
##uces
salvas
gastamos
##dot
##ptado
durmieron
culebra
escandaloso
isabella
asegurada
guaton
juguito
detectar
haberlos
mandatario
molestaba
pudieramos
huevas
sonriente
cheques
ecuacion
materna
ntp
zarpada
atrevete
cargarse
miedoo
vnzla
molino
envuelto
##taciones
solte
ancap
mediano
page
machitos
incita
mohamed
sarpado
findee
##bile
##uriz
embola
golazos
villaran
raje
##iguo
enfocado
intercambiar
inversa
matones
cede
##viviendo
fiscalizar
pulgar
##live
##tec
nomass
abris
bisbal
pegarte
##ndole
depresiva
dinamicas
ignorarme
##dte
##manas
caber
soccer
complicar
autoritarismo
ampollas
corresponda
manguera
##boys
dejais
recomienden
visitado
##iti
anticonceptivos
manipulando
bizcocho
cantarle
##fano
##lish
##antos
barcenas
ge
##lsivo
inalcanzable
##ratico
chanel
chapultepec
holocausto
grandiosa
rompimos
##nces
pacho
traste
querre
##egas
##gestion
##set
##culas
##trina
##flado
##lso
charlamos
escritora
lag
lcdll
##shh
acueste
##nata
carteras
cuyos
##rrera
##uch
aceptes
aplicada
contestarte
##bundo
empataron
road
##sino
benditas
demostrarte
endeudamiento
espantosa
perteneces
bazofia
##lena
falacias
guayana
hicieras
rapidas
ropita
##anes
##rpa
insti
preferimos
mejoria
gisela
admirado
tomadas
##ongo
grandote
santidad
llueven
##egos
##erra
curado
##drito
sentarte
##nana
ayudarle
##lias
ruedo
##gc
junne
echare
quadri
##dena
##telas
cuate
hallo
mataran
lan
premisa
logren
##nicos
coqueta
loo
lezcano
ponme
##pher
euforia
##ect
desculpa
noemi
qje
larrain
irle
##pitas
explotado
vomitivo
##renos
suicidarse
armenia
limitar
presenciar
comiendome
descubres
padrinos
xenofobo
force
bunker
motive
reik
anoo
descompuesto
amador
##viu
goliat
hacker
tenaz
andorra
novato
subiria
##urina
cuates
borron
hampon
pijamas
rendicion
##icemos
bizcochos
##bies
recesion
semovi
aprendiz
wspp
ubico
##lbo
##ienta
vto
creoo
##iquete
##tizada
mandare
veteranos
chingan
despacha
fachada
palmera
banera
##rnal
lukas
gorditos
prendiendo
##uve
araceli
bacano
incansable
ponerles
habiles
estadidad
habil
envios
agujeros
bombilla
quirofano
colina
santas
##ob
stella
cite
comeback
dandote
##ush
cross
##ueve
calificativo
fast
aros
opines
##meja
cianuro
exposiciones
graban
unan
lb
comprada
lover
##lay
ayuno
##ridad
autogol
madryn
calo
peros
pig
pruebe
siri
##adita
intolerable
lacio
##potente
comparen
kane
desprecia
noviazgo
bocadillo
xoxo
##pai
tooda
coahuila
asustados
barbera
juancho
aislados
divisiones
acentos
cabecear
durant
##rimos
oa
dif
pergamino
perjudican
obtenido
rajado
##lpa
playoff
bizarra
tomy
##lvi
orgasmos
cuchillos
adore
humedo
uuhh
##heo
juanjo
insistencia
##istico
##lse
##primir
aburres
fifis
peluquera
pillan
reian
convocados
prm
##quetes
recordara
terrenal
##minen
klopp
mercosur
cobrara
pernil
curul
asignaturas
trasnochar
odisea
levantara
##eren
soc
suuper
broche
##isimos
laburante
graficos
austria
gobernabilidad
simona
adictivo
flasha
harley
necia
##griento
##nchar
##ificados
frentes
calculado
calman
##ejen
alambre
invisibles
anton
##tetico
desventaja
##sato
##ceptor
previamente
bbs
##damos
##itismo
pellejo
sereno
xvii
##rdito
##valos
valdria
##umentando
punetera
salvara
hanna
##vente
esfuerza
grabois
act
sangra
##ead
##ensa
cotidiano
deis
arrancaron
nevada
pidele
lil
##vidas
brownies
texcoco
recaudar
fusil
##tini
abejas
orita
ligando
calva
indefensos
##ulantes
alboroto
banqueros
superheroes
cortez
expresan
refiriendose
sepanlo
estirar
##cluido
certamen
equivocamos
guacamole
salomon
##cripcion
##llow
ganarte
rami
atropellos
##ncar
cantara
##americanos
##buir
entenderia
reciproco
vengaa
brote
mateu
criticamos
##tuosa
eyy
paraliza
papada
enfadado
oseaa
buscandote
cristianismo
favea
portado
inquieta
tallas
##esi
abraces
narrar
##guar
pedira
they
enteraste
##cedo
americanista
barbosa
veloz
cadenita
previos
##mentada
contestaron
veci
##orta
masoquismo
informarte
ntc
##uccion
destrozando
##vierto
ets
##cayo
rulo
dadas
seguras
##centrico
contradice
##mb
repeti
##viar
admitirlo
coctel
inigo
##cm
celli
disenado
quorum
##ivismo
##times
rv
bighit
##own
radiohehed
eddie
pintaron
sintieron
cobraba
futbolistica
poderosas
##isto
conseguiste
folklore
licenciada
supervivientes
##cuy
##itir
dibujando
traumado
escuchandolos
agrede
trini
##bin
##ures
promotores
cenicienta
pinguinos
viole
##rreando
permites
mides
pokemons
atorrante
ultras
##cheros
estee
compinches
laboratorios
protectora
save
minero
miraste
vintage
gritado
pancha
abusando
aproxima
##elito
incoherencias
oportuna
planeacion
menospreciar
##porta
zanganos
desfachatez
diamantes
kiara
##gotas
##deciendo
##vencia
apuntan
robinson
debuta
ofrezca
amaste
bungee
##zante
defendernos
adoptado
novi
##domo
millonarias
##valle
geniaa
lacayo
mortadela
petare
harvard
manolete
##cubierta
aparta
despedidos
enorgullece
jumm
giras
integro
##hado
##onga
repuesta
##chile
detengan
capacitado
patrullas
pobree
jajaa
andante
carola
creerme
escasa
tabare
productivos
##encie
##ndar
##eira
##ggio
##iante
colapsar
##lata
perjudicado
derrite
arrepentiras
mirarse
vaquero
##esur
legislativa
tarden
velvet
carreta
rb
brady
muriel
desvelada
jacob
eden
pelotero
jms
lamer
mamii
##mizo
convencerme
##endia
abrirme
acusando
pibitas
raid
##zul
pinamar
canyas
inserte
manipulado
ayudes
##cendiente
##zacion
bis
english
priscila
quitaran
tinca
##retti
tobias
torres0
##aas
acomodando
suscriptores
##dini
contamina
buscaron
cuidemos
jupiter
mima
##gato
joderte
maridos
validos
##tiles
##pica
chancha
tilda
continental
criticaron
##lier
llantos
lolita
saint
sainz
calmarme
acompanas
defina
pisan
saludarlo
soros
list
galerias
##over
##gaa
convoco
##lizo
##urralde
mantra
##noso
corsos
infinitos
##duzcan
##oke
ains
merkel
contadas
entregarle
molestarme
dont
obeso
##cam
##fini
magna
produciendo
disparan
mendigar
lincoln
ensaladas
urgentes
##cristo
##ceptible
desconecto
tenencia
##fono
##tenida
##eve
existente
mientra
retiran
vagabundo
##tril
avisarle
mamaguevo
vegetariano
##mie
travel
loser
bochornoso
cepo
cacerolazo
encendida
##icidad
chongos
alessandro
directorio
atrevio
ensenarte
alcanzara
encerrar
saltos
trapito
acelerar
agendas
tendido
##gimiento
##polla
##plir
##iser
navaja
##sear
distraido
pollitos
##zote
chiche
##ille
buscador
buscalo
organice
autografos
sangria
##logicas
rifo
nirvana
firmemente
minimamente
##diel
caminaba
##ferido
empujo
indicadores
##ntada
##quismo
##venga
cartago
##°
controlando
escupo
incumplimiento
pepito
voltea
##fans
##omas
carlo
pepas
##gelo
paredon
traicionera
##waii
porron
tae
retuitear
fechorias
tweeter
conocian
llanta
fuistes
prisas
berrinches
##jir
arrastrando
arrepienta
penultimo
reconociendo
beses
sospechosa
##cule
##olla
badajoz
##rtera
##uiar
astral
cast
emocionados
rinones
camarero
segmento
##tillas
##endieron
##ropa
##iciosa
atajar
##troza
floricienta
intentalo
mojito
desahogo
pagaste
vigilar
arrechos
ayto
nueces
mitos
vertee
pistolas
crecieron
echada
##lcon
##nki
cubriendo
##formismo
apodos
encontrarla
enganaron
utilicen
##rarse
apurado
atar
porr
vidente
chamarra
estornudo
aristoteles
atraen
pulgas
lollapalooza
colgados
##ever
mamera
##bidos
##nquito
costeno
postes
##plete
apartir
llamare
turistica
oligarca
ocean
##biliario
##kers
chupito
finlandia
proud
jugadora
cuadrar
permanentemente
unha
eliminada
anunciada
dw
enterate
##hahal
consignas
##center
cohete
alterada
loq
jagger
bolos
xs
##gobierno
despiertes
sosteniendo
##formado
alice
bmw
pegao
##herine
huevito
informese
gricha
extranado
papeletas
##tuvieron
afectuoso
##ings
kumpa
lux
biglia
videito
##etica
sentire
ciclovia
cuidarla
hardcore
##udando
bananas
graduo
nole
estrene
##bri
tipicas
mirador
rozas
sandy
sedes
enamoradas
trompada
dgo
loba
##iani
deshacer
chupenme
##ciosa
desacato
dejeis
##ain
llevenme
pros
indigente
sufrieron
wachoo
discutimos
gustito
lapicera
##ates
llevemos
deprimirme
ayudarla
fora
julito
besarme
destapar
marcados
zapping
castellanos
registrar
##kay
confundes
sisisi
apaguen
##belo
##ulgar
buenita
sias
gringas
nubla
##dote
santafe
cdsm
porvenir
seleccionado
##biliza
norona
##cinas
##tillos
##ayan
##dijo
josefa
llamaran
pomelo
toyota
integrar
mieres
montesinos
food
percibe
terminaria
venegas
##vivo
##etico
problemita
##met
acumulada
pauli
##bala
##wski
gent
junqueras
ext
desleal
nadien
##ilar
condado
grammys
jos
##versidad
nara
estorbo
franca
alcoholismo
trompa
##tificar
colocado
##nds
##ogio
nw
amabas
bs0
citan
encajo
gallega
manzano
maligno
rut
dales
diferido
poquita
lentitud
leuco
luchadores
##jido
calera
farsantes
culiados
glorieta
##uiz
fatiga
plantada
##rion
culta
meternos
tunja
amanecido
suspendan
apretando
tangas
##ticar
detective
altiro
caputo
abras
##lazados
denunciarlo
interpretaciones
phoenix
yolo
##xter
destaco
espontaneo
colocando
mismisima
sound
##dazo
avisos
invierten
monitor
mentirle
meteorito
lucido
##dental
##lateral
fisio
lego
secuestrada
oiste
usaria
fomenta
hacele
borraste
firman
arrebato
fijarme
martell
chupete
flias
tam
porke
prostitutas
exodo
incorrecta
##pollas
vlc
flama
##rdear
microfonos
olia
lameculos
tiraban
estay
circulan
encendedor
exportacion
paridad
quedada
miau
joa
paisana
sustituto
asignacion
encomienda
lavada
minimizar
recorre
empatado
ratoo
##zano
adoran
estereo
##rba
fueraa
quando
pelin
energumeno
pelearse
##gins
zone
bukele
carr
##fen
jin
sabiendas
cambiate
gi
solidos
colaborador
detenida
sientate
##ervo
acompanados
chingao
kiosko
derrocar
bergoglio
senalan
##fle
##gaste
##nillo
genealogia
##ucto
condominio
juanga
llamarla
##cillas
espia
tristisimo
analfabetos
creados
viviana
##haca
dear
averigue
hermanoo
adversario
humillante
juzgues
mls
muack
##irse
##sten
delegados
divididos
##bby
##rbe
lcdsm
prestada
##raba
##neando
adversarios
cachaha
caraa
##ln
cabify
hulk
##ag
converse
##oces
irreversible
primicia
esports
np
carnita
opone
sobri
##rrow
blunt
cela
maduren
##box
##jd
autorizo
secu
significativo
mudos
cagandose
cambiada
respondia
puercos
educativos
vencimiento
##isimas
##cila
mandela
##mayor
normalizar
esperaria
lavate
rifle
sudafrica
##eche
efron
privatizar
tea
acaricia
steam
investigadores
cin
elegiria
probaste
tonos
##seando
anticipada
mentis
principito
##fila
inercia
ironica
##ricamente
peta
sangrando
mirandote
mochilas
##moso
asociados
enfrento
moreau
discrimina
pacificas
cargadores
relevantes
##jor
ejercen
gor
rasgos
##cinto
dis
##cket
asuman
rodaje
chillando
mellis
felicitamos
ahogada
evitado
gema
##roso
escapado
kari
##mosle
aranguren
cnte
destrozada
##nomicas
##rende
paracos
sembrado
visitarte
##aire
arcos
copy
##imidad
##volviendo
sirviendo
tho
hinchados
riverdale
hihire
##tuido
tinieblas
botellita
##mbon
sargento
habremos
mejorara
contaras
manaos
sustancias
skate
univ
apoyara
ejecutivos
pensada
aferrarse
arrancarme
pestes
convenga
transportes
venida
##tega
##come
famous
felicitan
partimos
guy
flasho
##guense
arruga
freak
justifique
##reiro
denise
##dador
talk
##ensiva
animando
peppa
sudan
apagando
acerques
brinde
campito
dimite
menendez
##inidad
comprara
etarras
crie
##genas
ste
##uty
anabel
desvelarme
extremista
some
matarnos
boric
montajes
##pida
sometidos
auth
exigirle
platense
salvarse
##ripa
acomodado
ensenarles
exportar
gorrito
nenee
asesinadas
##rel
atrasados
seb
scribbler
interesaba
joni
bache
froome
pintor
congelar
energetico
##hiba
##nable
##soo
jesu
natura
safe
complicaciones
roncero
rasta
aportado
constructiva
nic
card
criticaban
implacable
ares
derivados
goleo
alcantarilla
kong
trinos
##rece
informal
kgb
weba
##uelas
moscu
##viano
shippeo
##tiel
asustando
comediante
##cedente
chucky
oficialista
harold
bu
##tale
##von
apego
bardeo
reconocidos
##hip
aba
furiosos
disfrutad
##tegui
yeso
eutanasia
marioneta
recordarles
##terio
adorada
polilla
wanna
##otes
##mbolso
masterchef
topic
aclarando
diabolico
gerentes
cubierta
##riel
##edas
##teis
accesorios
casla
siglas
miopia
##eaba
atropellado
##vv
memeo
chayote
kuka
paralisis
estorba
rellenos
fabricar
##pones
##quilibrado
descendientes
yate
ofendio
saldras
##ceros
reconcha
pesimas
ciao
suspendida
traerlo
##lr
##noche
andrada
magario
acuerden
hada
##tty
mdeo
warner
##otrxs
cuelgue
decirse
prada
##tuan
##xon
change
##sable
marlon
pronunciamiento
escondes
##j0
envase
pilsen
##vre
armys
stoy
susan
desplazamiento
tempra
##unado
decepcione
nai
##vados
desagradables
##mpu
divo
mikel
encante
juanes
yamila
##jadas
videojuego
dde
liquidar
##virtieron
contenedor
sor
##azul
burbujas
concentrados
taca
jenner
##fecta
estacionamientos
replay
corazoon
vito
##accion
electos
lumpen
wuu
##dow
##wl
booty
##aka
##urra
elettra
##ronto
pezon
giros
gitano
amaya
##cil
sandwiches
vicenteserrano
diu
quedao
resucitar
gue
opening
tds
arrastre
arteaga
soplar
##lson
escuchandote
tempestad
ceba
chema
escritas
judia
##razos
remata
asumiendo
cases
cocinan
virtuales
##grados
enmienda
fulop
##udido
aldi
gafe
razas
tami
campeche
nacida
sexys
todoos
heladas
pietra
plasticos
##truccion
finos
quererla
olvidaremos
babosos
coyuntura
mejorate
amunt
aterra
default
informativa
nani
##adito
nap
bernasconi
salee
incorporar
exterminio
heredero
##nicio
##got
disfrutala
promotor
afirmaciones
laburantes
nicki
##dier
##eamos
expulsan
asesinas
viviamos
quemadas
agregaron
arequipa
contestaba
nito
##eme
ayudarlos
pole
##digo
##ror
bancarias
desobediencia
infante
tarifazo
mateos
responderte
chuu
guarra
##camos
dividida
zancudos
chaca
cizana
nadita
##lice
##ustica
conseguis
##garcia
##robe
bautizo
becerra
exitosos
##enia
adorado
dejanos
pipo
tx
mijita
paritarias
cuatico
electro
entrene
##ark
crbv
invencible
verdadd
disimulo
gordillo
miraron
ejerciendo
vendemos
##nial
montse
quilla
brigada
contandole
enfermando
innecesarios
nenito
cuestionan
pv
##fina
##lingue
##nin
arrepintiendo
soltado
genuino
sobrevivo
##buco
polino
##udita
auv
##cur
dibuja
room
##cruz
riendas
ansiosos
blah
enfrentamientos
sua
argel
colima
tejido
##trosa
##milla
cualidad
desabasto
xeneize
mayormente
tomlinson
##nz
emisoras
alvear
catarsis
entendeis
desaparezco
##wen
##ativo
fregada
leonas
polemicas
tentando
albo
jony
temores
descalza
empeora
links
picnic
##mato
misiles
angelo
muu
fiestera
hu
acompaname
manifiestan
ilusionarme
cannabis
tambor
##gger
mag
pensionistas
##juelas
##umido
indescriptible
alguito
fotocopia
##baba
contempla
##anista
cornejo
ovacion
turros
##of
adorar
dominado
marxistas
preferidos
##nitis
alvez
arca
##urio
##uit
##unt
innegable
follo
peinar
compromete
ham
capucha
##diaco
##riar
anula
despedi
pit
bush
alevin
habitaciones
sostengo
##ducen
desviado
koke
mamarrachos
satrapa
miguelito
paseos
tioo
dond
compartirla
##gota
compiten
jevo
mareada
quitamos
alterna
sequito
##fra
cortamos
romulo
conexiones
guardianes
kretina
largarme
##neado
##uracion
niegues
pasivos
composicion
derechito
##uten
bco
kb
cansamos
paramilitar
publicaron
democracias
jugarse
tardaron
tenirme
meu
ow
sobrinita
puntuacion
violadas
##rome
rogelio
intentaba
cua
greta
ligado
maniobras
##ciada
morat
poros
makoke
overwatch
viajeros
mockus
graacias
invitaria
panita
##off
##usia
apache
bias
hobby
guardare
##maco
descojono
##vele
byee
conspira
echenique
facto
##cutan
enviare
transversal
##plon
medina0
##iff
madurista
regar
##facto
coser
tranquiliza
afectara
##adia
##simas
alanis
amikos
aplicable
kobe
revisan
competente
intermitente
caviares
convocan
##mear
deus
bloqueas
muletas
preciosidad
##coo
##town
cardenales
densos
guardadas
inquietudes
##turba
llenamos
tabu
##gios
cuentale
frees
lap
porcentajes
septum
##gure
##iciones
estelar
lennon
##quel
##ccio
##uisimo
debuto
##dril
##elita
maquillarme
ecatepec
##abilidad
ahorras
embustero
sostienen
donda
zuniga
lgtbi
divertir
entranas
cdr
causante
##meo
alcanzaba
mesmo
trending
##blanco
folla
tarzan
exponiendo
existenciales
broder
subirla
cachar
delirante
endgame
##homa
improvisado
##hinas
poleo
garchando
deleite
gritas
guacala
##postura
conti
juno
pinola
advierte
##uena
aceptalo
pechito
tipas
malecon
wilde
entretiempo
##simos
combos
canje
hahaga
comienzos
pazz
##mper
hundio
tajada
##ltra
##terrorista
south
preservar
tranque
contraste
pedaso
toditos
##jp
bass
guardaespaldas
##culado
abusivos
henriquez
ortivas
royal
entrenado
panfleto
##icial
dijeras
oara
puchero
tomandome
atrasa
bloques
cuadrilla
procesal
reus
##chones
agujas
comiendose
bj
lente
vigilantes
embarazos
necesitaban
##erro
alsina
palencia
reciclaje
##ctica
despedimos
progresismo
orgullosamente
estubo
##firiendo
araya
convertirme
##izador
##vian
escracho
novaresio
##bilo
##rocha
faldas
tocamos
carter
envidiosas
robaba
acompanara
boludea
caminado
envianos
escuadron
##oye
##fone
huelgas
coloque
repercusion
botan
marge
##fobica
##gri
##dulce
##fm
##isos
##peras
chv
nome
##hn
valera
gandhi
repetida
##corta
vitaminas
clavada
distrae
voluntariamente
##nity
agarrame
apurada
fabulosa
##parados
convento
##engo
accesos
influir
manchado
murphy
##glio
tijeras
descuida
diplomado
hueones
##upto
motivada
niegas
##erce
damelo
encargara
envigado
hacha
odiame
##oque
conciente
recibia
alivia
cuides
tiraria
viajaba
##rci
fijamente
quedarian
desordenado
medidor
sismica
tecnologica
quedese
##nato
##precio
indie
atendieron
comprenden
##ntillas
##echista
encantando
portas
visitan
colme
fundido
##elen
maduros
pando
patrio
activan
paternidad
bulling
##┓┃
karate
recalentado
buo
business
martires
movilizaciones
tuitean
##celar
indec
cebe
desconectado
jared
marhuenda
patty
##enial
multiplica
quimicos
chaparro
derrumba
ironias
kika
pornografia
ensenarnos
invitaste
nombraron
marmota
armen
lisboa
##ctar
##queto
ly
reconoces
soreta
intendentes
rumbos
##ester
comienzas
peos
hambruna
creame
dandonos
reunio
##brimiento
tutela
liquidacion
respetuosos
costados
mascarilla
##veo
reventada
pastelitos
##garon
buaa
##uia
##verry
atrapo
culiaa
felicitala
tse
##jica
stanley
##ndola
hipoteca
pobresito
rubios
agujetas
brujula
cagarnos
##jk
pinturas
sismos
empeorar
regula
enganada
impedimento
##jsj
cabalgata
clavaste
informativos
mandamientos
##fican
manijaja
##minado
avianca
satisfecha
pah
salvarme
astilla
nayib
privatizacion
chiquitito
aprueben
cortarle
##nova
##rimen
acabes
mariela
transportistas
cafeina
orbita
spider
dirija
revoluciones
nunoa
waso
##reado
notese
congelados
injustificable
mezquino
saquearon
barrientos
multiple
##reci
hongo
aparenta
hope
memorable
mezclan
##falda
poblaciones
risaa
ammo
enga
##teras
juga
##primido
fraterno
googlear
paper
sombrilla
##fonia
##nses
##yle
hipster
liberan
hombree
##golo
interviene
regalaste
##rativo
napolitana
##pur
papeleta
faja
paranormal
plasta
soa
sospechar
subjetivo
agradeciendo
buffet
saa
usos
aspirantes
volaron
##rupcion
dinos
expresarme
compartio
existimos
depositos
suciedad
london
orinar
puertos
dior
pocoo
reu
##tituye
morfo
##bierto
##rcio
humilla
##eck
enganes
otr
##jejendo
consigan
##pt
controlada
fia
piece
##rugo
aprobadas
driussi
##zota
cuidame
parker
cava
regalarnos
##logan
mamaste
morenos
bates
##yr
cicig
presiona
boludean
ikea
pasaremos
##maro
##uti
prediccion
##lante
narrativa
aguardiente
platon
santoro
taquillas
mirare
##nario
amorosas
soportando
canaliza
creera
presumes
##cheta
##jena
amablemente
deluxe
lyon
nii
ladelvalle
##redon
corridos
despensa
##itario
##mplaza
##queado
kicillof
botado
caco
defenderla
##uentes
medieval
##bendas
batata
bicampeon
chandal
impactado
portando
suaves
##graficos
beben
acojonante
devolve
##crecion
enriquecimiento
todass
trajiste
comodin
michi
vooy
acariciando
labiales
xxl
##seo
gritaban
informarme
balada
jeremias
mp0
gourmet
rebotes
gr0
infinidad
pdta
cidh
nuez
tyler
##llito
encantaron
fl
flotando
actualizando
##rtero
publicidades
bauti
usualmente
afectos
presentas
casadas
twittera
censurar
enterrado
xii
mote
tacticas
finalizo
main
maqueta
procuraduria
##lix
rotura
embajadora
loza
##psa
lexico
regios
##metros
##iao
amaras
nervio
delicuentes
notre
##quico
##rates
estimo
subira
atada
tumbo
##igi
##peton
traicionan
triana
chismoso
asegurate
##selas
mandaban
##sd
candidaturas
##sano
gime
##licas
sirenita
##lucion
puig
residencial
##cogido
espanta
lavin
nato
potencias
focos
validas
##rcho
##urita
boxeador
chanchito
lt
formulas
taladro
veterano
renegando
sumision
##ware
cos
##iedad
natacha
separadas
agradar
caguas
any
turbia
##stando
##onos
golpee
julion
inventada
jojojo
mrk
##golpe
cumbres
omgg
edgardo
mz
##zabal
besamos
##ryn
chadwick
dolera
panista
wsw
denigrante
puntito
##rao
brota
cogieron
cumplis
diay
variable
##cionar
imaginamos
medula
##kan
qls
sel
latiendo
dispositivos
##rgar
##beche
##huete
##rlas
brouu
cre
shrek
esquivel
pong
##decima
envidiar
oculista
prom
reci
manzanilla
preferente
echeverria
eloy
precipicio
dese
manabi
##vii
internacionalmente
paradigma
sonrias
tecito
temple
queens
toallas
##veras
conciliar
terminarla
autorizado
diz
mantenidos
marisa
acosar
matadero
santamaria
superare
sumate
ant
bsf
canton
mediocampo
vc
aprovecharse
creyendose
ocurrira
producciones
retar
wei
pedrodeltoro
##tientes
dirigidos
##flacion
##mitia
eliana
agil
cabos
close
cochinos
##corar
aburris
superen
cando
tello
##quino
generas
maduras
sentite
##nombre
temprana
interminables
autora
##oral
descendido
empezaran
urquiza
laucha
masche
##rtito
aspas
escogio
ocuparse
porfavoor
versus
##mr
glas
rastrear
torturar
##foro
revelar
incentivar
acordaron
castana
serviria
catia
confirmaron
dense
soberbios
ampliamente
cuadrada
yess
aranda
bejarano
cenado
##deres
asociado
enfada
equipito
panteon
teno
##pidio
coima
desees
drones
ojalaa
##beza
##tenia
prendan
ameo
cheves
atreva
##titi
abrazaba
##idan
derek
ninito
wattpad
##ellan
##adamente
rain
dictamen
give
maturin
perjudicados
##junta
transcurso
##bag
difamacion
hambriento
morris
viejitas
##rdia
transferencias
##ibre
heras
colonial
setiembre
##uki
facial
facetime
equivocando
aliviar
##elco
editando
inspiro
mijito
##une
alegrado
babyy
ghost
caprichoso
procedente
sane
sapa
temos
##bujito
##lable
grasias
vocales
cubra
entregarte
fem
pelito
##xion
docencia
fastidiosa
bsos
##ffles
##vios
golpeador
flashan
potestad
quejandome
sumen
condor
##anitos
##orth
grido
detractores
rachas
serbia
indefenso
analogia
electronicos
flavio
narvaez
recen
##ptar
tatuada
trabajara
cantes
liderato
compartidos
bombardeo
cul
calambre
selectivo
lupe
boris
margaritas
##llando
amigoss
levantarnos
descartar
identico
incrementar
##viando
##nimo
justificado
repetimos
fianza
i0
humillado
privilegiado
sucursales
derogar
eb
##montes
encontremos
week
ebrios
##igual
asomo
manipuladora
albumes
requiero
##uaria
##ulada
milka
benavides
dolo
pancarta
caimos
identificados
respectivas
alquilo
conoceis
dlc
cortazar
haganle
lejitos
tab
aparecera
cantada
ofenda
wtff
##jazos
elvira
pubertad
retwittear
cargadas
importantisimo
repelente
els
##tilar
##ezo
ponencia
##bolismo
contarnos
descargado
alain
miramar
nuera
##ave
rehenes
##earon
spanish
##nb
orta
allan
##carme
becky
radicalismo
tem
##itados
dominante
apiade
core
##vr
hulio
melli
preguntaban
trasladar
alive
jenni
apuntado
concluyo
obispos
universe
representados
saleh
potra
motivar
barranca
dx
##jsjaja
autonomias
indigentes
mineral
ejido
cortaste
tenso
guapi
korea
baseball
royale
vietnam
##tuda
contrarios
chalecos
romperte
sanitaria
venenosa
termas
##ew
##velo
hablador
##iman
##ngel
bso
sotano
conversion
gl
virgencita
infumables
jente
adopto
padecen
##vieso
##ventar
##voz
##forzado
apuren
meterlos
pacha
##ogue
dudamel
matrix
##bolico
caceria
delicadeza
enredo
##vey
cajones
carente
##hace
desmentir
llamalo
filmar
algebra
riego
apoyarme
extranen
fanny
zapopan
distraigo
perseguida
watson
tarantino
tupe
competitiva
favoorr
##feras
##ffo
saqueado
san0
##uden
ecologico
remember
sosten
##tanea
##tha
groseros
sensei
##mberos
favoritismo
impacta
parezcan
tocino
##lette
especular
jue
malcriada
##mones
gatillo
porciones
sintoniza
##ddy
comerciante
##roy
chiquitita
notebook
acercas
hartas
lptm
fumamos
calmense
##nauta
chacarita
estass
locuraa
##leras
##sitas
amarrado
boa
colacao
glee
latigo
usual
cogerte
pinchar
rellena
wna
fiestita
pua
peino
##rbero
llovido
salven
enamoramos
reputa
silvina
igualitos
monagas
doblemente
tramitar
abrazoo
##mala
napoles
correistas
denver
defiendas
##rizar
almaa
gallito
iberia
atropellar
empatamos
##zarse
laje
relacionadas
muevete
almeyda
estallido
reservo
##carta
estate
fotoo
serna
embajadores
sorprendes
##reada
macarrones
saludaste
descalzo
puntitos
sets
cercanias
honey
estocolmo
xolos
destacados
##icidio
##matica
ironicamente
pintados
promocionando
ebriedad
recurrente
cafetera
necesitabamos
automovil
zlatan
##egon
mananera
plebes
chenoa
llevabamos
quebre
##buye
escapamos
imparciales
guardalo
inferioridad
qla
tropiezo
babosadas
cilia
##cyo
dixit
encargan
escribire
##gea
##nteria
##drive
arbitrajes
##pleta
rober
##ndido
comprensible
justito
##tener
extender
facilita
chara
qliao
estresan
min0
desesperanza
castigue
nocturnas
perreando
incomodos
mitin
todita
torpes
##mber
ensenada
masivos
met
rige
##jimos
##love
jugadoras
vans
##uss
allanamiento
patrick
pervertido
##scritos
##endose
duermete
inc
senoritas
##nizando
henrique
historiador
[...]
